{
  "version": "1.0",
  "truncation": null,
  "padding": null,
  "added_tokens": [
    {
      "id": 0,
      "content": "<0x00>",
      "single_word": false,
      "lstrip": false,
      "rstrip": false,
      "normalized": false,
      "special": false
    },
    {
      "id": 1,
      "content": "<0x01>",
      "single_word": false,
      "lstrip": false,
      "rstrip": false,
      "normalized": false,
      "special": false
    },
    {
      "id": 2,
      "content": "<0x02>",
      "single_word": false,
      "lstrip": false,
      "rstrip": false,
      "normalized": false,
      "special": false
    },
    {
      "id": 3,
      "content": "<0x03>",
      "single_word": false,
      "lstrip": false,
      "rstrip": false,
      "normalized": false,
      "special": false
    },
    {
      "id": 4,
      "content": "<0x04>",
      "single_word": false,
      "lstrip": false,
      "rstrip": false,
      "normalized": false,
      "special": false
    },
    {
      "id": 5,
      "content": "<0x05>",
      "single_word": false,
      "lstrip": false,
      "rstrip": false,
      "normalized": false,
      "special": false
    },
    {
      "id": 6,
      "content": "<0x06>",
      "single_word": false,
      "lstrip": false,
      "rstrip": false,
      "normalized": false,
      "special": false
    },
    {
      "id": 7,
      "content": "<0x07>",
      "single_word": false,
      "lstrip": false,
      "rstrip": false,
      "normalized": false,
      "special": false
    },
    {
      "id": 8,
      "content": "<0x08>",
      "single_word": false,
      "lstrip": false,
      "rstrip": false,
      "normalized": false,
      "special": false
    },
    {
      "id": 9,
      "content": "<0x09>",
      "single_word": false,
      "lstrip": false,
      "rstrip": false,
      "normalized": false,
      "special": false
    },
    {
      "id": 10,
      "content": "<0x0A>",
      "single_word": false,
      "lstrip": false,
      "rstrip": false,
      "normalized": false,
      "special": false
    },
    {
      "id": 11,
      "content": "<0x0B>",
      "single_word": false,
      "lstrip": false,
      "rstrip": false,
      "normalized": false,
      "special": false
    },
    {
      "id": 12,
      "content": "<0x0C>",
      "single_word": false,
      "lstrip": false,
      "rstrip": false,
      "normalized": false,
      "special": false
    },
    {
      "id": 13,
      "content": "<0x0D>",
      "single_word": false,
      "lstrip": false,
      "rstrip": false,
      "normalized": false,
      "special": false
    },
    {
      "id": 14,
      "content": "<0x0E>",
      "single_word": false,
      "lstrip": false,
      "rstrip": false,
      "normalized": false,
      "special": false
    },
    {
      "id": 15,
      "content": "<0x0F>",
      "single_word": false,
      "lstrip": false,
      "rstrip": false,
      "normalized": false,
      "special": false
    },
    {
      "id": 16,
      "content": "<0x10>",
      "single_word": false,
      "lstrip": false,
      "rstrip": false,
      "normalized": false,
      "special": false
    },
    {
      "id": 17,
      "content": "<0x11>",
      "single_word": false,
      "lstrip": false,
      "rstrip": false,
      "normalized": false,
      "special": false
    },
    {
      "id": 18,
      "content": "<0x12>",
      "single_word": false,
      "lstrip": false,
      "rstrip": false,
      "normalized": false,
      "special": false
    },
    {
      "id": 19,
      "content": "<0x13>",
      "single_word": false,
      "lstrip": false,
      "rstrip": false,
      "normalized": false,
      "special": false
    },
    {
      "id": 20,
      "content": "<0x14>",
      "single_word": false,
      "lstrip": false,
      "rstrip": false,
      "normalized": false,
      "special": false
    },
    {
      "id": 21,
      "content": "<0x15>",
      "single_word": false,
      "lstrip": false,
      "rstrip": false,
      "normalized": false,
      "special": false
    },
    {
      "id": 22,
      "content": "<0x16>",
      "single_word": false,
      "lstrip": false,
      "rstrip": false,
      "normalized": false,
      "special": false
    },
    {
      "id": 23,
      "content": "<0x17>",
      "single_word": false,
      "lstrip": false,
      "rstrip": false,
      "normalized": false,
      "special": false
    },
    {
      "id": 24,
      "content": "<0x18>",
      "single_word": false,
      "lstrip": false,
      "rstrip": false,
      "normalized": false,
      "special": false
    },
    {
      "id": 25,
      "content": "<0x19>",
      "single_word": false,
      "lstrip": false,
      "rstrip": false,
      "normalized": false,
      "special": false
    },
    {
      "id": 26,
      "content": "<0x1A>",
      "single_word": false,
      "lstrip": false,
      "rstrip": false,
      "normalized": false,
      "special": false
    },
    {
      "id": 27,
      "content": "<0x1B>",
      "single_word": false,
      "lstrip": false,
      "rstrip": false,
      "normalized": false,
      "special": false
    },
    {
      "id": 28,
      "content": "<0x1C>",
      "single_word": false,
      "lstrip": false,
      "rstrip": false,
      "normalized": false,
      "special": false
    },
    {
      "id": 29,
      "content": "<0x1D>",
      "single_word": false,
      "lstrip": false,
      "rstrip": false,
      "normalized": false,
      "special": false
    },
    {
      "id": 30,
      "content": "<0x1E>",
      "single_word": false,
      "lstrip": false,
      "rstrip": false,
      "normalized": false,
      "special": false
    },
    {
      "id": 31,
      "content": "<0x1F>",
      "single_word": false,
      "lstrip": false,
      "rstrip": false,
      "normalized": false,
      "special": false
    },
    {
      "id": 32,
      "content": "<0x20>",
      "single_word": false,
      "lstrip": false,
      "rstrip": false,
      "normalized": false,
      "special": false
    },
    {
      "id": 33,
      "content": "<0x21>",
      "single_word": false,
      "lstrip": false,
      "rstrip": false,
      "normalized": false,
      "special": false
    },
    {
      "id": 34,
      "content": "<0x22>",
      "single_word": false,
      "lstrip": false,
      "rstrip": false,
      "normalized": false,
      "special": false
    },
    {
      "id": 35,
      "content": "<0x23>",
      "single_word": false,
      "lstrip": false,
      "rstrip": false,
      "normalized": false,
      "special": false
    },
    {
      "id": 36,
      "content": "<0x24>",
      "single_word": false,
      "lstrip": false,
      "rstrip": false,
      "normalized": false,
      "special": false
    },
    {
      "id": 37,
      "content": "<0x25>",
      "single_word": false,
      "lstrip": false,
      "rstrip": false,
      "normalized": false,
      "special": false
    },
    {
      "id": 38,
      "content": "<0x26>",
      "single_word": false,
      "lstrip": false,
      "rstrip": false,
      "normalized": false,
      "special": false
    },
    {
      "id": 39,
      "content": "<0x27>",
      "single_word": false,
      "lstrip": false,
      "rstrip": false,
      "normalized": false,
      "special": false
    },
    {
      "id": 40,
      "content": "<0x28>",
      "single_word": false,
      "lstrip": false,
      "rstrip": false,
      "normalized": false,
      "special": false
    },
    {
      "id": 41,
      "content": "<0x29>",
      "single_word": false,
      "lstrip": false,
      "rstrip": false,
      "normalized": false,
      "special": false
    },
    {
      "id": 42,
      "content": "<0x2A>",
      "single_word": false,
      "lstrip": false,
      "rstrip": false,
      "normalized": false,
      "special": false
    },
    {
      "id": 43,
      "content": "<0x2B>",
      "single_word": false,
      "lstrip": false,
      "rstrip": false,
      "normalized": false,
      "special": false
    },
    {
      "id": 44,
      "content": "<0x2C>",
      "single_word": false,
      "lstrip": false,
      "rstrip": false,
      "normalized": false,
      "special": false
    },
    {
      "id": 45,
      "content": "<0x2D>",
      "single_word": false,
      "lstrip": false,
      "rstrip": false,
      "normalized": false,
      "special": false
    },
    {
      "id": 46,
      "content": "<0x2E>",
      "single_word": false,
      "lstrip": false,
      "rstrip": false,
      "normalized": false,
      "special": false
    },
    {
      "id": 47,
      "content": "<0x2F>",
      "single_word": false,
      "lstrip": false,
      "rstrip": false,
      "normalized": false,
      "special": false
    },
    {
      "id": 48,
      "content": "<0x30>",
      "single_word": false,
      "lstrip": false,
      "rstrip": false,
      "normalized": false,
      "special": false
    },
    {
      "id": 49,
      "content": "<0x31>",
      "single_word": false,
      "lstrip": false,
      "rstrip": false,
      "normalized": false,
      "special": false
    },
    {
      "id": 50,
      "content": "<0x32>",
      "single_word": false,
      "lstrip": false,
      "rstrip": false,
      "normalized": false,
      "special": false
    },
    {
      "id": 51,
      "content": "<0x33>",
      "single_word": false,
      "lstrip": false,
      "rstrip": false,
      "normalized": false,
      "special": false
    },
    {
      "id": 52,
      "content": "<0x34>",
      "single_word": false,
      "lstrip": false,
      "rstrip": false,
      "normalized": false,
      "special": false
    },
    {
      "id": 53,
      "content": "<0x35>",
      "single_word": false,
      "lstrip": false,
      "rstrip": false,
      "normalized": false,
      "special": false
    },
    {
      "id": 54,
      "content": "<0x36>",
      "single_word": false,
      "lstrip": false,
      "rstrip": false,
      "normalized": false,
      "special": false
    },
    {
      "id": 55,
      "content": "<0x37>",
      "single_word": false,
      "lstrip": false,
      "rstrip": false,
      "normalized": false,
      "special": false
    },
    {
      "id": 56,
      "content": "<0x38>",
      "single_word": false,
      "lstrip": false,
      "rstrip": false,
      "normalized": false,
      "special": false
    },
    {
      "id": 57,
      "content": "<0x39>",
      "single_word": false,
      "lstrip": false,
      "rstrip": false,
      "normalized": false,
      "special": false
    },
    {
      "id": 58,
      "content": "<0x3A>",
      "single_word": false,
      "lstrip": false,
      "rstrip": false,
      "normalized": false,
      "special": false
    },
    {
      "id": 59,
      "content": "<0x3B>",
      "single_word": false,
      "lstrip": false,
      "rstrip": false,
      "normalized": false,
      "special": false
    },
    {
      "id": 60,
      "content": "<0x3C>",
      "single_word": false,
      "lstrip": false,
      "rstrip": false,
      "normalized": false,
      "special": false
    },
    {
      "id": 61,
      "content": "<0x3D>",
      "single_word": false,
      "lstrip": false,
      "rstrip": false,
      "normalized": false,
      "special": false
    },
    {
      "id": 62,
      "content": "<0x3E>",
      "single_word": false,
      "lstrip": false,
      "rstrip": false,
      "normalized": false,
      "special": false
    },
    {
      "id": 63,
      "content": "<0x3F>",
      "single_word": false,
      "lstrip": false,
      "rstrip": false,
      "normalized": false,
      "special": false
    },
    {
      "id": 64,
      "content": "<0x40>",
      "single_word": false,
      "lstrip": false,
      "rstrip": false,
      "normalized": false,
      "special": false
    },
    {
      "id": 65,
      "content": "<0x41>",
      "single_word": false,
      "lstrip": false,
      "rstrip": false,
      "normalized": false,
      "special": false
    },
    {
      "id": 66,
      "content": "<0x42>",
      "single_word": false,
      "lstrip": false,
      "rstrip": false,
      "normalized": false,
      "special": false
    },
    {
      "id": 67,
      "content": "<0x43>",
      "single_word": false,
      "lstrip": false,
      "rstrip": false,
      "normalized": false,
      "special": false
    },
    {
      "id": 68,
      "content": "<0x44>",
      "single_word": false,
      "lstrip": false,
      "rstrip": false,
      "normalized": false,
      "special": false
    },
    {
      "id": 69,
      "content": "<0x45>",
      "single_word": false,
      "lstrip": false,
      "rstrip": false,
      "normalized": false,
      "special": false
    },
    {
      "id": 70,
      "content": "<0x46>",
      "single_word": false,
      "lstrip": false,
      "rstrip": false,
      "normalized": false,
      "special": false
    },
    {
      "id": 71,
      "content": "<0x47>",
      "single_word": false,
      "lstrip": false,
      "rstrip": false,
      "normalized": false,
      "special": false
    },
    {
      "id": 72,
      "content": "<0x48>",
      "single_word": false,
      "lstrip": false,
      "rstrip": false,
      "normalized": false,
      "special": false
    },
    {
      "id": 73,
      "content": "<0x49>",
      "single_word": false,
      "lstrip": false,
      "rstrip": false,
      "normalized": false,
      "special": false
    },
    {
      "id": 74,
      "content": "<0x4A>",
      "single_word": false,
      "lstrip": false,
      "rstrip": false,
      "normalized": false,
      "special": false
    },
    {
      "id": 75,
      "content": "<0x4B>",
      "single_word": false,
      "lstrip": false,
      "rstrip": false,
      "normalized": false,
      "special": false
    },
    {
      "id": 76,
      "content": "<0x4C>",
      "single_word": false,
      "lstrip": false,
      "rstrip": false,
      "normalized": false,
      "special": false
    },
    {
      "id": 77,
      "content": "<0x4D>",
      "single_word": false,
      "lstrip": false,
      "rstrip": false,
      "normalized": false,
      "special": false
    },
    {
      "id": 78,
      "content": "<0x4E>",
      "single_word": false,
      "lstrip": false,
      "rstrip": false,
      "normalized": false,
      "special": false
    },
    {
      "id": 79,
      "content": "<0x4F>",
      "single_word": false,
      "lstrip": false,
      "rstrip": false,
      "normalized": false,
      "special": false
    },
    {
      "id": 80,
      "content": "<0x50>",
      "single_word": false,
      "lstrip": false,
      "rstrip": false,
      "normalized": false,
      "special": false
    },
    {
      "id": 81,
      "content": "<0x51>",
      "single_word": false,
      "lstrip": false,
      "rstrip": false,
      "normalized": false,
      "special": false
    },
    {
      "id": 82,
      "content": "<0x52>",
      "single_word": false,
      "lstrip": false,
      "rstrip": false,
      "normalized": false,
      "special": false
    },
    {
      "id": 83,
      "content": "<0x53>",
      "single_word": false,
      "lstrip": false,
      "rstrip": false,
      "normalized": false,
      "special": false
    },
    {
      "id": 84,
      "content": "<0x54>",
      "single_word": false,
      "lstrip": false,
      "rstrip": false,
      "normalized": false,
      "special": false
    },
    {
      "id": 85,
      "content": "<0x55>",
      "single_word": false,
      "lstrip": false,
      "rstrip": false,
      "normalized": false,
      "special": false
    },
    {
      "id": 86,
      "content": "<0x56>",
      "single_word": false,
      "lstrip": false,
      "rstrip": false,
      "normalized": false,
      "special": false
    },
    {
      "id": 87,
      "content": "<0x57>",
      "single_word": false,
      "lstrip": false,
      "rstrip": false,
      "normalized": false,
      "special": false
    },
    {
      "id": 88,
      "content": "<0x58>",
      "single_word": false,
      "lstrip": false,
      "rstrip": false,
      "normalized": false,
      "special": false
    },
    {
      "id": 89,
      "content": "<0x59>",
      "single_word": false,
      "lstrip": false,
      "rstrip": false,
      "normalized": false,
      "special": false
    },
    {
      "id": 90,
      "content": "<0x5A>",
      "single_word": false,
      "lstrip": false,
      "rstrip": false,
      "normalized": false,
      "special": false
    },
    {
      "id": 91,
      "content": "<0x5B>",
      "single_word": false,
      "lstrip": false,
      "rstrip": false,
      "normalized": false,
      "special": false
    },
    {
      "id": 92,
      "content": "<0x5C>",
      "single_word": false,
      "lstrip": false,
      "rstrip": false,
      "normalized": false,
      "special": false
    },
    {
      "id": 93,
      "content": "<0x5D>",
      "single_word": false,
      "lstrip": false,
      "rstrip": false,
      "normalized": false,
      "special": false
    },
    {
      "id": 94,
      "content": "<0x5E>",
      "single_word": false,
      "lstrip": false,
      "rstrip": false,
      "normalized": false,
      "special": false
    },
    {
      "id": 95,
      "content": "<0x5F>",
      "single_word": false,
      "lstrip": false,
      "rstrip": false,
      "normalized": false,
      "special": false
    },
    {
      "id": 96,
      "content": "<0x60>",
      "single_word": false,
      "lstrip": false,
      "rstrip": false,
      "normalized": false,
      "special": false
    },
    {
      "id": 97,
      "content": "<0x61>",
      "single_word": false,
      "lstrip": false,
      "rstrip": false,
      "normalized": false,
      "special": false
    },
    {
      "id": 98,
      "content": "<0x62>",
      "single_word": false,
      "lstrip": false,
      "rstrip": false,
      "normalized": false,
      "special": false
    },
    {
      "id": 99,
      "content": "<0x63>",
      "single_word": false,
      "lstrip": false,
      "rstrip": false,
      "normalized": false,
      "special": false
    },
    {
      "id": 100,
      "content": "<0x64>",
      "single_word": false,
      "lstrip": false,
      "rstrip": false,
      "normalized": false,
      "special": false
    },
    {
      "id": 101,
      "content": "<0x65>",
      "single_word": false,
      "lstrip": false,
      "rstrip": false,
      "normalized": false,
      "special": false
    },
    {
      "id": 102,
      "content": "<0x66>",
      "single_word": false,
      "lstrip": false,
      "rstrip": false,
      "normalized": false,
      "special": false
    },
    {
      "id": 103,
      "content": "<0x67>",
      "single_word": false,
      "lstrip": false,
      "rstrip": false,
      "normalized": false,
      "special": false
    },
    {
      "id": 104,
      "content": "<0x68>",
      "single_word": false,
      "lstrip": false,
      "rstrip": false,
      "normalized": false,
      "special": false
    },
    {
      "id": 105,
      "content": "<0x69>",
      "single_word": false,
      "lstrip": false,
      "rstrip": false,
      "normalized": false,
      "special": false
    },
    {
      "id": 106,
      "content": "<0x6A>",
      "single_word": false,
      "lstrip": false,
      "rstrip": false,
      "normalized": false,
      "special": false
    },
    {
      "id": 107,
      "content": "<0x6B>",
      "single_word": false,
      "lstrip": false,
      "rstrip": false,
      "normalized": false,
      "special": false
    },
    {
      "id": 108,
      "content": "<0x6C>",
      "single_word": false,
      "lstrip": false,
      "rstrip": false,
      "normalized": false,
      "special": false
    },
    {
      "id": 109,
      "content": "<0x6D>",
      "single_word": false,
      "lstrip": false,
      "rstrip": false,
      "normalized": false,
      "special": false
    },
    {
      "id": 110,
      "content": "<0x6E>",
      "single_word": false,
      "lstrip": false,
      "rstrip": false,
      "normalized": false,
      "special": false
    },
    {
      "id": 111,
      "content": "<0x6F>",
      "single_word": false,
      "lstrip": false,
      "rstrip": false,
      "normalized": false,
      "special": false
    },
    {
      "id": 112,
      "content": "<0x70>",
      "single_word": false,
      "lstrip": false,
      "rstrip": false,
      "normalized": false,
      "special": false
    },
    {
      "id": 113,
      "content": "<0x71>",
      "single_word": false,
      "lstrip": false,
      "rstrip": false,
      "normalized": false,
      "special": false
    },
    {
      "id": 114,
      "content": "<0x72>",
      "single_word": false,
      "lstrip": false,
      "rstrip": false,
      "normalized": false,
      "special": false
    },
    {
      "id": 115,
      "content": "<0x73>",
      "single_word": false,
      "lstrip": false,
      "rstrip": false,
      "normalized": false,
      "special": false
    },
    {
      "id": 116,
      "content": "<0x74>",
      "single_word": false,
      "lstrip": false,
      "rstrip": false,
      "normalized": false,
      "special": false
    },
    {
      "id": 117,
      "content": "<0x75>",
      "single_word": false,
      "lstrip": false,
      "rstrip": false,
      "normalized": false,
      "special": false
    },
    {
      "id": 118,
      "content": "<0x76>",
      "single_word": false,
      "lstrip": false,
      "rstrip": false,
      "normalized": false,
      "special": false
    },
    {
      "id": 119,
      "content": "<0x77>",
      "single_word": false,
      "lstrip": false,
      "rstrip": false,
      "normalized": false,
      "special": false
    },
    {
      "id": 120,
      "content": "<0x78>",
      "single_word": false,
      "lstrip": false,
      "rstrip": false,
      "normalized": false,
      "special": false
    },
    {
      "id": 121,
      "content": "<0x79>",
      "single_word": false,
      "lstrip": false,
      "rstrip": false,
      "normalized": false,
      "special": false
    },
    {
      "id": 122,
      "content": "<0x7A>",
      "single_word": false,
      "lstrip": false,
      "rstrip": false,
      "normalized": false,
      "special": false
    },
    {
      "id": 123,
      "content": "<0x7B>",
      "single_word": false,
      "lstrip": false,
      "rstrip": false,
      "normalized": false,
      "special": false
    },
    {
      "id": 124,
      "content": "<0x7C>",
      "single_word": false,
      "lstrip": false,
      "rstrip": false,
      "normalized": false,
      "special": false
    },
    {
      "id": 125,
      "content": "<0x7D>",
      "single_word": false,
      "lstrip": false,
      "rstrip": false,
      "normalized": false,
      "special": false
    },
    {
      "id": 126,
      "content": "<0x7E>",
      "single_word": false,
      "lstrip": false,
      "rstrip": false,
      "normalized": false,
      "special": false
    },
    {
      "id": 127,
      "content": "<0x7F>",
      "single_word": false,
      "lstrip": false,
      "rstrip": false,
      "normalized": false,
      "special": false
    },
    {
      "id": 128,
      "content": "<0x80>",
      "single_word": false,
      "lstrip": false,
      "rstrip": false,
      "normalized": false,
      "special": false
    },
    {
      "id": 129,
      "content": "<0x81>",
      "single_word": false,
      "lstrip": false,
      "rstrip": false,
      "normalized": false,
      "special": false
    },
    {
      "id": 130,
      "content": "<0x82>",
      "single_word": false,
      "lstrip": false,
      "rstrip": false,
      "normalized": false,
      "special": false
    },
    {
      "id": 131,
      "content": "<0x83>",
      "single_word": false,
      "lstrip": false,
      "rstrip": false,
      "normalized": false,
      "special": false
    },
    {
      "id": 132,
      "content": "<0x84>",
      "single_word": false,
      "lstrip": false,
      "rstrip": false,
      "normalized": false,
      "special": false
    },
    {
      "id": 133,
      "content": "<0x85>",
      "single_word": false,
      "lstrip": false,
      "rstrip": false,
      "normalized": false,
      "special": false
    },
    {
      "id": 134,
      "content": "<0x86>",
      "single_word": false,
      "lstrip": false,
      "rstrip": false,
      "normalized": false,
      "special": false
    },
    {
      "id": 135,
      "content": "<0x87>",
      "single_word": false,
      "lstrip": false,
      "rstrip": false,
      "normalized": false,
      "special": false
    },
    {
      "id": 136,
      "content": "<0x88>",
      "single_word": false,
      "lstrip": false,
      "rstrip": false,
      "normalized": false,
      "special": false
    },
    {
      "id": 137,
      "content": "<0x89>",
      "single_word": false,
      "lstrip": false,
      "rstrip": false,
      "normalized": false,
      "special": false
    },
    {
      "id": 138,
      "content": "<0x8A>",
      "single_word": false,
      "lstrip": false,
      "rstrip": false,
      "normalized": false,
      "special": false
    },
    {
      "id": 139,
      "content": "<0x8B>",
      "single_word": false,
      "lstrip": false,
      "rstrip": false,
      "normalized": false,
      "special": false
    },
    {
      "id": 140,
      "content": "<0x8C>",
      "single_word": false,
      "lstrip": false,
      "rstrip": false,
      "normalized": false,
      "special": false
    },
    {
      "id": 141,
      "content": "<0x8D>",
      "single_word": false,
      "lstrip": false,
      "rstrip": false,
      "normalized": false,
      "special": false
    },
    {
      "id": 142,
      "content": "<0x8E>",
      "single_word": false,
      "lstrip": false,
      "rstrip": false,
      "normalized": false,
      "special": false
    },
    {
      "id": 143,
      "content": "<0x8F>",
      "single_word": false,
      "lstrip": false,
      "rstrip": false,
      "normalized": false,
      "special": false
    },
    {
      "id": 144,
      "content": "<0x90>",
      "single_word": false,
      "lstrip": false,
      "rstrip": false,
      "normalized": false,
      "special": false
    },
    {
      "id": 145,
      "content": "<0x91>",
      "single_word": false,
      "lstrip": false,
      "rstrip": false,
      "normalized": false,
      "special": false
    },
    {
      "id": 146,
      "content": "<0x92>",
      "single_word": false,
      "lstrip": false,
      "rstrip": false,
      "normalized": false,
      "special": false
    },
    {
      "id": 147,
      "content": "<0x93>",
      "single_word": false,
      "lstrip": false,
      "rstrip": false,
      "normalized": false,
      "special": false
    },
    {
      "id": 148,
      "content": "<0x94>",
      "single_word": false,
      "lstrip": false,
      "rstrip": false,
      "normalized": false,
      "special": false
    },
    {
      "id": 149,
      "content": "<0x95>",
      "single_word": false,
      "lstrip": false,
      "rstrip": false,
      "normalized": false,
      "special": false
    },
    {
      "id": 150,
      "content": "<0x96>",
      "single_word": false,
      "lstrip": false,
      "rstrip": false,
      "normalized": false,
      "special": false
    },
    {
      "id": 151,
      "content": "<0x97>",
      "single_word": false,
      "lstrip": false,
      "rstrip": false,
      "normalized": false,
      "special": false
    },
    {
      "id": 152,
      "content": "<0x98>",
      "single_word": false,
      "lstrip": false,
      "rstrip": false,
      "normalized": false,
      "special": false
    },
    {
      "id": 153,
      "content": "<0x99>",
      "single_word": false,
      "lstrip": false,
      "rstrip": false,
      "normalized": false,
      "special": false
    },
    {
      "id": 154,
      "content": "<0x9A>",
      "single_word": false,
      "lstrip": false,
      "rstrip": false,
      "normalized": false,
      "special": false
    },
    {
      "id": 155,
      "content": "<0x9B>",
      "single_word": false,
      "lstrip": false,
      "rstrip": false,
      "normalized": false,
      "special": false
    },
    {
      "id": 156,
      "content": "<0x9C>",
      "single_word": false,
      "lstrip": false,
      "rstrip": false,
      "normalized": false,
      "special": false
    },
    {
      "id": 157,
      "content": "<0x9D>",
      "single_word": false,
      "lstrip": false,
      "rstrip": false,
      "normalized": false,
      "special": false
    },
    {
      "id": 158,
      "content": "<0x9E>",
      "single_word": false,
      "lstrip": false,
      "rstrip": false,
      "normalized": false,
      "special": false
    },
    {
      "id": 159,
      "content": "<0x9F>",
      "single_word": false,
      "lstrip": false,
      "rstrip": false,
      "normalized": false,
      "special": false
    },
    {
      "id": 160,
      "content": "<0xA0>",
      "single_word": false,
      "lstrip": false,
      "rstrip": false,
      "normalized": false,
      "special": false
    },
    {
      "id": 161,
      "content": "<0xA1>",
      "single_word": false,
      "lstrip": false,
      "rstrip": false,
      "normalized": false,
      "special": false
    },
    {
      "id": 162,
      "content": "<0xA2>",
      "single_word": false,
      "lstrip": false,
      "rstrip": false,
      "normalized": false,
      "special": false
    },
    {
      "id": 163,
      "content": "<0xA3>",
      "single_word": false,
      "lstrip": false,
      "rstrip": false,
      "normalized": false,
      "special": false
    },
    {
      "id": 164,
      "content": "<0xA4>",
      "single_word": false,
      "lstrip": false,
      "rstrip": false,
      "normalized": false,
      "special": false
    },
    {
      "id": 165,
      "content": "<0xA5>",
      "single_word": false,
      "lstrip": false,
      "rstrip": false,
      "normalized": false,
      "special": false
    },
    {
      "id": 166,
      "content": "<0xA6>",
      "single_word": false,
      "lstrip": false,
      "rstrip": false,
      "normalized": false,
      "special": false
    },
    {
      "id": 167,
      "content": "<0xA7>",
      "single_word": false,
      "lstrip": false,
      "rstrip": false,
      "normalized": false,
      "special": false
    },
    {
      "id": 168,
      "content": "<0xA8>",
      "single_word": false,
      "lstrip": false,
      "rstrip": false,
      "normalized": false,
      "special": false
    },
    {
      "id": 169,
      "content": "<0xA9>",
      "single_word": false,
      "lstrip": false,
      "rstrip": false,
      "normalized": false,
      "special": false
    },
    {
      "id": 170,
      "content": "<0xAA>",
      "single_word": false,
      "lstrip": false,
      "rstrip": false,
      "normalized": false,
      "special": false
    },
    {
      "id": 171,
      "content": "<0xAB>",
      "single_word": false,
      "lstrip": false,
      "rstrip": false,
      "normalized": false,
      "special": false
    },
    {
      "id": 172,
      "content": "<0xAC>",
      "single_word": false,
      "lstrip": false,
      "rstrip": false,
      "normalized": false,
      "special": false
    },
    {
      "id": 173,
      "content": "<0xAD>",
      "single_word": false,
      "lstrip": false,
      "rstrip": false,
      "normalized": false,
      "special": false
    },
    {
      "id": 174,
      "content": "<0xAE>",
      "single_word": false,
      "lstrip": false,
      "rstrip": false,
      "normalized": false,
      "special": false
    },
    {
      "id": 175,
      "content": "<0xAF>",
      "single_word": false,
      "lstrip": false,
      "rstrip": false,
      "normalized": false,
      "special": false
    },
    {
      "id": 176,
      "content": "<0xB0>",
      "single_word": false,
      "lstrip": false,
      "rstrip": false,
      "normalized": false,
      "special": false
    },
    {
      "id": 177,
      "content": "<0xB1>",
      "single_word": false,
      "lstrip": false,
      "rstrip": false,
      "normalized": false,
      "special": false
    },
    {
      "id": 178,
      "content": "<0xB2>",
      "single_word": false,
      "lstrip": false,
      "rstrip": false,
      "normalized": false,
      "special": false
    },
    {
      "id": 179,
      "content": "<0xB3>",
      "single_word": false,
      "lstrip": false,
      "rstrip": false,
      "normalized": false,
      "special": false
    },
    {
      "id": 180,
      "content": "<0xB4>",
      "single_word": false,
      "lstrip": false,
      "rstrip": false,
      "normalized": false,
      "special": false
    },
    {
      "id": 181,
      "content": "<0xB5>",
      "single_word": false,
      "lstrip": false,
      "rstrip": false,
      "normalized": false,
      "special": false
    },
    {
      "id": 182,
      "content": "<0xB6>",
      "single_word": false,
      "lstrip": false,
      "rstrip": false,
      "normalized": false,
      "special": false
    },
    {
      "id": 183,
      "content": "<0xB7>",
      "single_word": false,
      "lstrip": false,
      "rstrip": false,
      "normalized": false,
      "special": false
    },
    {
      "id": 184,
      "content": "<0xB8>",
      "single_word": false,
      "lstrip": false,
      "rstrip": false,
      "normalized": false,
      "special": false
    },
    {
      "id": 185,
      "content": "<0xB9>",
      "single_word": false,
      "lstrip": false,
      "rstrip": false,
      "normalized": false,
      "special": false
    },
    {
      "id": 186,
      "content": "<0xBA>",
      "single_word": false,
      "lstrip": false,
      "rstrip": false,
      "normalized": false,
      "special": false
    },
    {
      "id": 187,
      "content": "<0xBB>",
      "single_word": false,
      "lstrip": false,
      "rstrip": false,
      "normalized": false,
      "special": false
    },
    {
      "id": 188,
      "content": "<0xBC>",
      "single_word": false,
      "lstrip": false,
      "rstrip": false,
      "normalized": false,
      "special": false
    },
    {
      "id": 189,
      "content": "<0xBD>",
      "single_word": false,
      "lstrip": false,
      "rstrip": false,
      "normalized": false,
      "special": false
    },
    {
      "id": 190,
      "content": "<0xBE>",
      "single_word": false,
      "lstrip": false,
      "rstrip": false,
      "normalized": false,
      "special": false
    },
    {
      "id": 191,
      "content": "<0xBF>",
      "single_word": false,
      "lstrip": false,
      "rstrip": false,
      "normalized": false,
      "special": false
    },
    {
      "id": 192,
      "content": "<0xC0>",
      "single_word": false,
      "lstrip": false,
      "rstrip": false,
      "normalized": false,
      "special": false
    },
    {
      "id": 193,
      "content": "<0xC1>",
      "single_word": false,
      "lstrip": false,
      "rstrip": false,
      "normalized": false,
      "special": false
    },
    {
      "id": 194,
      "content": "<0xC2>",
      "single_word": false,
      "lstrip": false,
      "rstrip": false,
      "normalized": false,
      "special": false
    },
    {
      "id": 195,
      "content": "<0xC3>",
      "single_word": false,
      "lstrip": false,
      "rstrip": false,
      "normalized": false,
      "special": false
    },
    {
      "id": 196,
      "content": "<0xC4>",
      "single_word": false,
      "lstrip": false,
      "rstrip": false,
      "normalized": false,
      "special": false
    },
    {
      "id": 197,
      "content": "<0xC5>",
      "single_word": false,
      "lstrip": false,
      "rstrip": false,
      "normalized": false,
      "special": false
    },
    {
      "id": 198,
      "content": "<0xC6>",
      "single_word": false,
      "lstrip": false,
      "rstrip": false,
      "normalized": false,
      "special": false
    },
    {
      "id": 199,
      "content": "<0xC7>",
      "single_word": false,
      "lstrip": false,
      "rstrip": false,
      "normalized": false,
      "special": false
    },
    {
      "id": 200,
      "content": "<0xC8>",
      "single_word": false,
      "lstrip": false,
      "rstrip": false,
      "normalized": false,
      "special": false
    },
    {
      "id": 201,
      "content": "<0xC9>",
      "single_word": false,
      "lstrip": false,
      "rstrip": false,
      "normalized": false,
      "special": false
    },
    {
      "id": 202,
      "content": "<0xCA>",
      "single_word": false,
      "lstrip": false,
      "rstrip": false,
      "normalized": false,
      "special": false
    },
    {
      "id": 203,
      "content": "<0xCB>",
      "single_word": false,
      "lstrip": false,
      "rstrip": false,
      "normalized": false,
      "special": false
    },
    {
      "id": 204,
      "content": "<0xCC>",
      "single_word": false,
      "lstrip": false,
      "rstrip": false,
      "normalized": false,
      "special": false
    },
    {
      "id": 205,
      "content": "<0xCD>",
      "single_word": false,
      "lstrip": false,
      "rstrip": false,
      "normalized": false,
      "special": false
    },
    {
      "id": 206,
      "content": "<0xCE>",
      "single_word": false,
      "lstrip": false,
      "rstrip": false,
      "normalized": false,
      "special": false
    },
    {
      "id": 207,
      "content": "<0xCF>",
      "single_word": false,
      "lstrip": false,
      "rstrip": false,
      "normalized": false,
      "special": false
    },
    {
      "id": 208,
      "content": "<0xD0>",
      "single_word": false,
      "lstrip": false,
      "rstrip": false,
      "normalized": false,
      "special": false
    },
    {
      "id": 209,
      "content": "<0xD1>",
      "single_word": false,
      "lstrip": false,
      "rstrip": false,
      "normalized": false,
      "special": false
    },
    {
      "id": 210,
      "content": "<0xD2>",
      "single_word": false,
      "lstrip": false,
      "rstrip": false,
      "normalized": false,
      "special": false
    },
    {
      "id": 211,
      "content": "<0xD3>",
      "single_word": false,
      "lstrip": false,
      "rstrip": false,
      "normalized": false,
      "special": false
    },
    {
      "id": 212,
      "content": "<0xD4>",
      "single_word": false,
      "lstrip": false,
      "rstrip": false,
      "normalized": false,
      "special": false
    },
    {
      "id": 213,
      "content": "<0xD5>",
      "single_word": false,
      "lstrip": false,
      "rstrip": false,
      "normalized": false,
      "special": false
    },
    {
      "id": 214,
      "content": "<0xD6>",
      "single_word": false,
      "lstrip": false,
      "rstrip": false,
      "normalized": false,
      "special": false
    },
    {
      "id": 215,
      "content": "<0xD7>",
      "single_word": false,
      "lstrip": false,
      "rstrip": false,
      "normalized": false,
      "special": false
    },
    {
      "id": 216,
      "content": "<0xD8>",
      "single_word": false,
      "lstrip": false,
      "rstrip": false,
      "normalized": false,
      "special": false
    },
    {
      "id": 217,
      "content": "<0xD9>",
      "single_word": false,
      "lstrip": false,
      "rstrip": false,
      "normalized": false,
      "special": false
    },
    {
      "id": 218,
      "content": "<0xDA>",
      "single_word": false,
      "lstrip": false,
      "rstrip": false,
      "normalized": false,
      "special": false
    },
    {
      "id": 219,
      "content": "<0xDB>",
      "single_word": false,
      "lstrip": false,
      "rstrip": false,
      "normalized": false,
      "special": false
    },
    {
      "id": 220,
      "content": "<0xDC>",
      "single_word": false,
      "lstrip": false,
      "rstrip": false,
      "normalized": false,
      "special": false
    },
    {
      "id": 221,
      "content": "<0xDD>",
      "single_word": false,
      "lstrip": false,
      "rstrip": false,
      "normalized": false,
      "special": false
    },
    {
      "id": 222,
      "content": "<0xDE>",
      "single_word": false,
      "lstrip": false,
      "rstrip": false,
      "normalized": false,
      "special": false
    },
    {
      "id": 223,
      "content": "<0xDF>",
      "single_word": false,
      "lstrip": false,
      "rstrip": false,
      "normalized": false,
      "special": false
    },
    {
      "id": 224,
      "content": "<0xE0>",
      "single_word": false,
      "lstrip": false,
      "rstrip": false,
      "normalized": false,
      "special": false
    },
    {
      "id": 225,
      "content": "<0xE1>",
      "single_word": false,
      "lstrip": false,
      "rstrip": false,
      "normalized": false,
      "special": false
    },
    {
      "id": 226,
      "content": "<0xE2>",
      "single_word": false,
      "lstrip": false,
      "rstrip": false,
      "normalized": false,
      "special": false
    },
    {
      "id": 227,
      "content": "<0xE3>",
      "single_word": false,
      "lstrip": false,
      "rstrip": false,
      "normalized": false,
      "special": false
    },
    {
      "id": 228,
      "content": "<0xE4>",
      "single_word": false,
      "lstrip": false,
      "rstrip": false,
      "normalized": false,
      "special": false
    },
    {
      "id": 229,
      "content": "<0xE5>",
      "single_word": false,
      "lstrip": false,
      "rstrip": false,
      "normalized": false,
      "special": false
    },
    {
      "id": 230,
      "content": "<0xE6>",
      "single_word": false,
      "lstrip": false,
      "rstrip": false,
      "normalized": false,
      "special": false
    },
    {
      "id": 231,
      "content": "<0xE7>",
      "single_word": false,
      "lstrip": false,
      "rstrip": false,
      "normalized": false,
      "special": false
    },
    {
      "id": 232,
      "content": "<0xE8>",
      "single_word": false,
      "lstrip": false,
      "rstrip": false,
      "normalized": false,
      "special": false
    },
    {
      "id": 233,
      "content": "<0xE9>",
      "single_word": false,
      "lstrip": false,
      "rstrip": false,
      "normalized": false,
      "special": false
    },
    {
      "id": 234,
      "content": "<0xEA>",
      "single_word": false,
      "lstrip": false,
      "rstrip": false,
      "normalized": false,
      "special": false
    },
    {
      "id": 235,
      "content": "<0xEB>",
      "single_word": false,
      "lstrip": false,
      "rstrip": false,
      "normalized": false,
      "special": false
    },
    {
      "id": 236,
      "content": "<0xEC>",
      "single_word": false,
      "lstrip": false,
      "rstrip": false,
      "normalized": false,
      "special": false
    },
    {
      "id": 237,
      "content": "<0xED>",
      "single_word": false,
      "lstrip": false,
      "rstrip": false,
      "normalized": false,
      "special": false
    },
    {
      "id": 238,
      "content": "<0xEE>",
      "single_word": false,
      "lstrip": false,
      "rstrip": false,
      "normalized": false,
      "special": false
    },
    {
      "id": 239,
      "content": "<0xEF>",
      "single_word": false,
      "lstrip": false,
      "rstrip": false,
      "normalized": false,
      "special": false
    },
    {
      "id": 240,
      "content": "<0xF0>",
      "single_word": false,
      "lstrip": false,
      "rstrip": false,
      "normalized": false,
      "special": false
    },
    {
      "id": 241,
      "content": "<0xF1>",
      "single_word": false,
      "lstrip": false,
      "rstrip": false,
      "normalized": false,
      "special": false
    },
    {
      "id": 242,
      "content": "<0xF2>",
      "single_word": false,
      "lstrip": false,
      "rstrip": false,
      "normalized": false,
      "special": false
    },
    {
      "id": 243,
      "content": "<0xF3>",
      "single_word": false,
      "lstrip": false,
      "rstrip": false,
      "normalized": false,
      "special": false
    },
    {
      "id": 244,
      "content": "<0xF4>",
      "single_word": false,
      "lstrip": false,
      "rstrip": false,
      "normalized": false,
      "special": false
    },
    {
      "id": 245,
      "content": "<0xF5>",
      "single_word": false,
      "lstrip": false,
      "rstrip": false,
      "normalized": false,
      "special": false
    },
    {
      "id": 246,
      "content": "<0xF6>",
      "single_word": false,
      "lstrip": false,
      "rstrip": false,
      "normalized": false,
      "special": false
    },
    {
      "id": 247,
      "content": "<0xF7>",
      "single_word": false,
      "lstrip": false,
      "rstrip": false,
      "normalized": false,
      "special": false
    },
    {
      "id": 248,
      "content": "<0xF8>",
      "single_word": false,
      "lstrip": false,
      "rstrip": false,
      "normalized": false,
      "special": false
    },
    {
      "id": 249,
      "content": "<0xF9>",
      "single_word": false,
      "lstrip": false,
      "rstrip": false,
      "normalized": false,
      "special": false
    },
    {
      "id": 250,
      "content": "<0xFA>",
      "single_word": false,
      "lstrip": false,
      "rstrip": false,
      "normalized": false,
      "special": false
    },
    {
      "id": 251,
      "content": "<0xFB>",
      "single_word": false,
      "lstrip": false,
      "rstrip": false,
      "normalized": false,
      "special": false
    },
    {
      "id": 252,
      "content": "<0xFC>",
      "single_word": false,
      "lstrip": false,
      "rstrip": false,
      "normalized": false,
      "special": false
    },
    {
      "id": 253,
      "content": "<0xFD>",
      "single_word": false,
      "lstrip": false,
      "rstrip": false,
      "normalized": false,
      "special": false
    },
    {
      "id": 254,
      "content": "<0xFE>",
      "single_word": false,
      "lstrip": false,
      "rstrip": false,
      "normalized": false,
      "special": false
    },
    {
      "id": 255,
      "content": "<0xFF>",
      "single_word": false,
      "lstrip": false,
      "rstrip": false,
      "normalized": false,
      "special": false
    }
  ],
  "normalizer": null,
  "pre_tokenizer": {
    "type": "Metaspace",
    "replacement": "▁",
    "prepend_scheme": "never",
    "split": true
  },
  "post_processor": null,
  "decoder": {
    "type": "Sequence",
    "decoders": [
      {
        "type": "Replace",
        "pattern": {
          "String": "▁"
        },
        "content": " "
      },
      {
        "type": "ByteFallback"
      },
      {
        "type": "Fuse"
      }
    ]
  },
  "model": {
    "type": "BPE",
    "dropout": null,
    "unk_token": null,
    "continuing_subword_prefix": null,
    "end_of_word_suffix": null,
    "fuse_unk": false,
    "byte_fallback": true,
    "ignore_merges": false,
    "vocab": {
      "<0x00>": 0,
      "<0x01>": 1,
      "<0x02>": 2,
      "<0x03>": 3,
      "<0x04>": 4,
      "<0x05>": 5,
      "<0x06>": 6,
      "<0x07>": 7,
      "<0x08>": 8,
      "<0x09>": 9,
      "<0x0A>": 10,
      "<0x0B>": 11,
      "<0x0C>": 12,
      "<0x0D>": 13,
      "<0x0E>": 14,
      "<0x0F>": 15,
      "<0x10>": 16,
      "<0x11>": 17,
      "<0x12>": 18,
      "<0x13>": 19,
      "<0x14>": 20,
      "<0x15>": 21,
      "<0x16>": 22,
      "<0x17>": 23,
      "<0x18>": 24,
      "<0x19>": 25,
      "<0x1A>": 26,
      "<0x1B>": 27,
      "<0x1C>": 28,
      "<0x1D>": 29,
      "<0x1E>": 30,
      "<0x1F>": 31,
      "<0x20>": 32,
      "<0x21>": 33,
      "<0x22>": 34,
      "<0x23>": 35,
      "<0x24>": 36,
      "<0x25>": 37,
      "<0x26>": 38,
      "<0x27>": 39,
      "<0x28>": 40,
      "<0x29>": 41,
      "<0x2A>": 42,
      "<0x2B>": 43,
      "<0x2C>": 44,
      "<0x2D>": 45,
      "<0x2E>": 46,
      "<0x2F>": 47,
      "<0x30>": 48,
      "<0x31>": 49,
      "<0x32>": 50,
      "<0x33>": 51,
      "<0x34>": 52,
      "<0x35>": 53,
      "<0x36>": 54,
      "<0x37>": 55,
      "<0x38>": 56,
      "<0x39>": 57,
      "<0x3A>": 58,
      "<0x3B>": 59,
      "<0x3C>": 60,
      "<0x3D>": 61,
      "<0x3E>": 62,
      "<0x3F>": 63,
      "<0x40>": 64,
      "<0x41>": 65,
      "<0x42>": 66,
      "<0x43>": 67,
      "<0x44>": 68,
      "<0x45>": 69,
      "<0x46>": 70,
      "<0x47>": 71,
      "<0x48>": 72,
      "<0x49>": 73,
      "<0x4A>": 74,
      "<0x4B>": 75,
      "<0x4C>": 76,
      "<0x4D>": 77,
      "<0x4E>": 78,
      "<0x4F>": 79,
      "<0x50>": 80,
      "<0x51>": 81,
      "<0x52>": 82,
      "<0x53>": 83,
      "<0x54>": 84,
      "<0x55>": 85,
      "<0x56>": 86,
      "<0x57>": 87,
      "<0x58>": 88,
      "<0x59>": 89,
      "<0x5A>": 90,
      "<0x5B>": 91,
      "<0x5C>": 92,
      "<0x5D>": 93,
      "<0x5E>": 94,
      "<0x5F>": 95,
      "<0x60>": 96,
      "<0x61>": 97,
      "<0x62>": 98,
      "<0x63>": 99,
      "<0x64>": 100,
      "<0x65>": 101,
      "<0x66>": 102,
      "<0x67>": 103,
      "<0x68>": 104,
      "<0x69>": 105,
      "<0x6A>": 106,
      "<0x6B>": 107,
      "<0x6C>": 108,
      "<0x6D>": 109,
      "<0x6E>": 110,
      "<0x6F>": 111,
      "<0x70>": 112,
      "<0x71>": 113,
      "<0x72>": 114,
      "<0x73>": 115,
      "<0x74>": 116,
      "<0x75>": 117,
      "<0x76>": 118,
      "<0x77>": 119,
      "<0x78>": 120,
      "<0x79>": 121,
      "<0x7A>": 122,
      "<0x7B>": 123,
      "<0x7C>": 124,
      "<0x7D>": 125,
      "<0x7E>": 126,
      "<0x7F>": 127,
      "<0x80>": 128,
      "<0x81>": 129,
      "<0x82>": 130,
      "<0x83>": 131,
      "<0x84>": 132,
      "<0x85>": 133,
      "<0x86>": 134,
      "<0x87>": 135,
      "<0x88>": 136,
      "<0x89>": 137,
      "<0x8A>": 138,
      "<0x8B>": 139,
      "<0x8C>": 140,
      "<0x8D>": 141,
      "<0x8E>": 142,
      "<0x8F>": 143,
      "<0x90>": 144,
      "<0x91>": 145,
      "<0x92>": 146,
      "<0x93>": 147,
      "<0x94>": 148,
      "<0x95>": 149,
      "<0x96>": 150,
      "<0x97>": 151,
      "<0x98>": 152,
      "<0x99>": 153,
      "<0x9A>": 154,
      "<0x9B>": 155,
      "<0x9C>": 156,
      "<0x9D>": 157,
      "<0x9E>": 158,
      "<0x9F>": 159,
      "<0xA0>": 160,
      "<0xA1>": 161,
      "<0xA2>": 162,
      "<0xA3>": 163,
      "<0xA4>": 164,
      "<0xA5>": 165,
      "<0xA6>": 166,
      "<0xA7>": 167,
      "<0xA8>": 168,
      "<0xA9>": 169,
      "<0xAA>": 170,
      "<0xAB>": 171,
      "<0xAC>": 172,
      "<0xAD>": 173,
      "<0xAE>": 174,
      "<0xAF>": 175,
      "<0xB0>": 176,
      "<0xB1>": 177,
      "<0xB2>": 178,
      "<0xB3>": 179,
      "<0xB4>": 180,
      "<0xB5>": 181,
      "<0xB6>": 182,
      "<0xB7>": 183,
      "<0xB8>": 184,
      "<0xB9>": 185,
      "<0xBA>": 186,
      "<0xBB>": 187,
      "<0xBC>": 188,
      "<0xBD>": 189,
      "<0xBE>": 190,
      "<0xBF>": 191,
      "<0xC0>": 192,
      "<0xC1>": 193,
      "<0xC2>": 194,
      "<0xC3>": 195,
      "<0xC4>": 196,
      "<0xC5>": 197,
      "<0xC6>": 198,
      "<0xC7>": 199,
      "<0xC8>": 200,
      "<0xC9>": 201,
      "<0xCA>": 202,
      "<0xCB>": 203,
      "<0xCC>": 204,
      "<0xCD>": 205,
      "<0xCE>": 206,
      "<0xCF>": 207,
      "<0xD0>": 208,
      "<0xD1>": 209,
      "<0xD2>": 210,
      "<0xD3>": 211,
      "<0xD4>": 212,
      "<0xD5>": 213,
      "<0xD6>": 214,
      "<0xD7>": 215,
      "<0xD8>": 216,
      "<0xD9>": 217,
      "<0xDA>": 218,
      "<0xDB>": 219,
      "<0xDC>": 220,
      "<0xDD>": 221,
      "<0xDE>": 222,
      "<0xDF>": 223,
      "<0xE0>": 224,
      "<0xE1>": 225,
      "<0xE2>": 226,
      "<0xE3>": 227,
      "<0xE4>": 228,
      "<0xE5>": 229,
      "<0xE6>": 230,
      "<0xE7>": 231,
      "<0xE8>": 232,
      "<0xE9>": 233,
      "<0xEA>": 234,
      "<0xEB>": 235,
      "<0xEC>": 236,
      "<0xED>": 237,
      "<0xEE>": 238,
      "<0xEF>": 239,
      "<0xF0>": 240,
      "<0xF1>": 241,
      "<0xF2>": 242,
      "<0xF3>": 243,
      "<0xF4>": 244,
      "<0xF5>": 245,
      "<0xF6>": 246,
      "<0xF7>": 247,
      "<0xF8>": 248,
      "<0xF9>": 249,
      "<0xFA>": 250,
      "<0xFB>": 251,
      "<0xFC>": 252,
      "<0xFD>": 253,
      "<0xFE>": 254,
      "<0xFF>": 255,
      "\n": 256,
      "!": 257,
      "\"": 258,
      "#": 259,
      "$": 260,
      "%": 261,
      "&": 262,
      "'": 263,
      "(": 264,
      ")": 265,
      "*": 266,
      "+": 267,
      ",": 268,
      "-": 269,
      ".": 270,
      "/": 271,
      "0": 272,
      "1": 273,
      "2": 274,
      "3": 275,
      "4": 276,
      "5": 277,
      "6": 278,
      "7": 279,
      "8": 280,
      "9": 281,
      ":": 282,
      ";": 283,
      "<": 284,
      "=": 285,
      ">": 286,
      "?": 287,
      "A": 288,
      "B": 289,
      "C": 290,
      "D": 291,
      "E": 292,
      "F": 293,
      "G": 294,
      "H": 295,
      "I": 296,
      "J": 297,
      "K": 298,
      "L": 299,
      "M": 300,
      "N": 301,
      "O": 302,
      "P": 303,
      "Q": 304,
      "R": 305,
      "S": 306,
      "T": 307,
      "U": 308,
      "V": 309,
      "W": 310,
      "X": 311,
      "Y": 312,
      "Z": 313,
      "[": 314,
      "\\": 315,
      "]": 316,
      "^": 317,
      "_": 318,
      "`": 319,
      "a": 320,
      "b": 321,
      "c": 322,
      "d": 323,
      "e": 324,
      "f": 325,
      "g": 326,
      "h": 327,
      "i": 328,
      "j": 329,
      "k": 330,
      "l": 331,
      "m": 332,
      "n": 333,
      "o": 334,
      "p": 335,
      "q": 336,
      "r": 337,
      "s": 338,
      "t": 339,
      "u": 340,
      "v": 341,
      "w": 342,
      "x": 343,
      "y": 344,
      "z": 345,
      "{": 346,
      "|": 347,
      "}": 348,
      "~": 349,
      "°": 350,
      "²": 351,
      "·": 352,
      "Ö": 353,
      "á": 354,
      "â": 355,
      "æ": 356,
      "ç": 357,
      "è": 358,
      "é": 359,
      "í": 360,
      "ñ": 361,
      "ö": 362,
      "ü": 363,
      "ā": 364,
      "ī": 365,
      "İ": 366,
      "Ś": 367,
      "ś": 368,
      "ū": 369,
      "ș": 370,
      "ə": 371,
      "ɦ": 372,
      "ɪ": 373,
      "ɾ": 374,
      "ʊ": 375,
      "ʱ": 376,
      "ʼ": 377,
      "ˈ": 378,
      "ː": 379,
      "ί": 380,
      "α": 381,
      "δ": 382,
      "θ": 383,
      "ν": 384,
      "π": 385,
      "ς": 386,
      "ό": 387,
      "ँ": 388,
      "ं": 389,
      "ः": 390,
      "अ": 391,
      "आ": 392,
      "इ": 393,
      "ई": 394,
      "उ": 395,
      "ऊ": 396,
      "ऋ": 397,
      "ऍ": 398,
      "ए": 399,
      "ऐ": 400,
      "ऑ": 401,
      "ओ": 402,
      "औ": 403,
      "क": 404,
      "ख": 405,
      "ग": 406,
      "घ": 407,
      "ङ": 408,
      "च": 409,
      "छ": 410,
      "ज": 411,
      "झ": 412,
      "ञ": 413,
      "ट": 414,
      "ठ": 415,
      "ड": 416,
      "ढ": 417,
      "ण": 418,
      "त": 419,
      "थ": 420,
      "द": 421,
      "ध": 422,
      "न": 423,
      "प": 424,
      "फ": 425,
      "ब": 426,
      "भ": 427,
      "म": 428,
      "य": 429,
      "र": 430,
      "ऱ": 431,
      "ल": 432,
      "ळ": 433,
      "व": 434,
      "श": 435,
      "ष": 436,
      "स": 437,
      "ह": 438,
      "़": 439,
      "ा": 440,
      "ि": 441,
      "ी": 442,
      "ु": 443,
      "ू": 444,
      "ृ": 445,
      "ॅ": 446,
      "े": 447,
      "ै": 448,
      "ॉ": 449,
      "ॊ": 450,
      "ो": 451,
      "ौ": 452,
      "्": 453,
      "ॠ": 454,
      "।": 455,
      "०": 456,
      "१": 457,
      "२": 458,
      "३": 459,
      "४": 460,
      "५": 461,
      "६": 462,
      "७": 463,
      "८": 464,
      "९": 465,
      "॰": 466,
      "ॲ": 467,
      "ం": 468,
      "ః": 469,
      "అ": 470,
      "ఆ": 471,
      "ఇ": 472,
      "ఈ": 473,
      "ఉ": 474,
      "ఋ": 475,
      "ఎ": 476,
      "ఏ": 477,
      "ఐ": 478,
      "ఒ": 479,
      "ఓ": 480,
      "ఔ": 481,
      "క": 482,
      "ఖ": 483,
      "గ": 484,
      "ఘ": 485,
      "చ": 486,
      "ఛ": 487,
      "జ": 488,
      "ఞ": 489,
      "ట": 490,
      "ఠ": 491,
      "డ": 492,
      "ఢ": 493,
      "ణ": 494,
      "త": 495,
      "థ": 496,
      "ద": 497,
      "ధ": 498,
      "న": 499,
      "ప": 500,
      "ఫ": 501,
      "బ": 502,
      "భ": 503,
      "మ": 504,
      "య": 505,
      "ర": 506,
      "ల": 507,
      "ళ": 508,
      "వ": 509,
      "శ": 510,
      "ష": 511,
      "స": 512,
      "హ": 513,
      "ా": 514,
      "ి": 515,
      "ీ": 516,
      "ు": 517,
      "ూ": 518,
      "ృ": 519,
      "ె": 520,
      "ే": 521,
      "ై": 522,
      "ొ": 523,
      "ో": 524,
      "ౌ": 525,
      "్": 526,
      "ṅ": 527,
      "ṇ": 528,
      "Ṛ": 529,
      "ṣ": 530,
      "ṭ": 531,
      "Ἰ": 532,
      "‌": 533,
      "‍": 534,
      "‎": 535,
      "–": 536,
      "—": 537,
      "‘": 538,
      "’": 539,
      "“": 540,
      "”": 541,
      "†": 542,
      "•": 543,
      "′": 544,
      "″": 545,
      "‹": 546,
      "›": 547,
      "⁡": 548,
      "₹": 549,
      "↑": 550,
      "−": 551,
      "ⓘ": 552,
      "▁": 553,
      "▲": 554,
      "﻿": 555,
      "](": 556,
      "](<": 557,
      "./": 558,
      "](<./": 559,
      "▁[": 560,
      "▁\"": 561,
      "nd": 562,
      "\")": 563,
      "ia": 564,
      "te": 565,
      "in": 566,
      "on": 567,
      "ndia": 568,
      "th": 569,
      "re": 570,
      "ार": 571,
      "ti": 572,
      "India": 573,
      "er": 574,
      "्र": 575,
      "or": 576,
      "20": 577,
      "an": 578,
      "ar": 579,
      ">)": 580,
      "al": 581,
      "्य": 582,
      "en": 583,
      "ed": 584,
      "of": 585,
      "▁*": 586,
      "es": 587,
      "▁क": 588,
      "is": 589,
      "ारत": 590,
      "भारत": 591,
      "▁स": 592,
      "ci": 593,
      "tion": 594,
      "the": 595,
      "om": 596,
      "\")\n": 597,
      "▁a": 598,
      "it": 599,
      "te_": 600,
      "▁प": 601,
      "#ci": 602,
      "#cite_": 603,
      "్ర": 604,
      "▁of": 605,
      "▁the": 606,
      "//": 607,
      "ou": 608,
      "रा": 609,
      "ic": 610,
      "▁म": 611,
      "as": 612,
      "ान": 613,
      "र्": 614,
      "ht": 615,
      "19": 616,
      "](<./India": 617,
      "ార": 618,
      "▁(": 619,
      "le": 620,
      "्या": 621,
      "▁India": 622,
      "la": 623,
      "ch": 624,
      "201": 625,
      "no": 626,
      "g/": 627,
      "tp": 628,
      "id": 629,
      "http": 630,
      "oo": 631,
      "या": 632,
      "://": 633,
      "ra": 634,
      "OT": 635,
      "▁p": 636,
      "▁ह": 637,
      "▁in": 638,
      "▁व": 639,
      "ik": 640,
      "200": 641,
      "्त": 642,
      "▁आ": 643,
      "▁s": 644,
      "-0": 645,
      "](<./India#cite_": 646,
      "▁and": 647,
      "ent": 648,
      "](<./भारत": 649,
      "lo": 650,
      "ing": 651,
      "iv": 652,
      "ాల": 653,
      "िक": 654,
      "▁अ": 655,
      "ात": 656,
      "ref": 657,
      "um": 658,
      "](<http": 659,
      "-1": 660,
      "com": 661,
      "us": 662,
      "et": 663,
      "ri": 664,
      "s://": 665,
      "ad": 666,
      "్య": 667,
      "ाल": 668,
      "note": 669,
      "[[": 670,
      "iki": 671,
      "ीय": 672,
      "edia": 673,
      "▁A": 674,
      "\\(": 675,
      "\\)": 676,
      "▁1": 677,
      "wiki": 678,
      "at": 679,
      ".or": 680,
      "ec": 681,
      "ist": 682,
      "am": 683,
      ".\n": 684,
      "ref-": 685,
      "note-": 686,
      "భార": 687,
      ".org/": 688,
      "భారత": 689,
      "స్": 690,
      "ang": 691,
      "▁S": 692,
      "ation": 693,
      "దే": 694,
      "ेश": 695,
      "of_": 696,
      "ook": 697,
      "_of_": 698,
      "దేశ": 699,
      "](<https://": 700,
      "ons": 701,
      "▁f": 702,
      "▁प्र": 703,
      "ac": 704,
      "ें": 705,
      "\"),": 706,
      "ag": 707,
      "▁ప": 708,
      "▁w": 709,
      "▁c": 710,
      "▁C": 711,
      "▁द": 712,
      "**": 713,
      "▁b": 714,
      "సా": 715,
      "▁t": 716,
      "li": 717,
      "ना": 718,
      "ंग": 719,
      "▁के": 720,
      "ित": 721,
      "▁m": 722,
      "78": 723,
      "ur": 724,
      "▁ज": 725,
      "b/": 726,
      "న్": 727,
      "्ष": 728,
      "▁भारत": 729,
      "ww": 730,
      "he": 731,
      "िया": 732,
      "▁P": 733,
      "red": 734,
      "ter": 735,
      "lin": 736,
      "▁[↑": 737,
      "ला": 738,
      "jp": 739,
      "il": 740,
      "ర్": 741,
      "ov": 742,
      "राज": 743,
      ".jp": 744,
      "स्": 745,
      "IS": 746,
      "▁त": 747,
      "we": 748,
      "भा": 749,
      "](<./भारत#cite_": 750,
      "ial": 751,
      "FO": 752,
      "NOT": 753,
      "OTNOT": 754,
      "FOOTNOT": 755,
      "FOOTNOTE": 756,
      "em": 757,
      "and": 758,
      "up": 759,
      "▁2": 760,
      "978": 761,
      "ष्": 762,
      "ां": 763,
      "ास": 764,
      "▁न": 765,
      "BN": 766,
      "res": 767,
      "ISBN": 768,
      "00": 769,
      "ची": 770,
      "▁d": 771,
      "▁ब": 772,
      "లు": 773,
      "ro": 774,
      "Sou": 775,
      "link": 776,
      "ce": 777,
      "రా": 778,
      "]](<./India#cite_": 779,
      "edit": 780,
      "fi": 781,
      "=1": 782,
      "](<./India#cite_ref-": 783,
      "]](<./India#cite_note-": 784,
      "action": 785,
      "▁T": 786,
      "▁R": 787,
      "action=": 788,
      "action=edit": 789,
      "ले": 790,
      "▁M": 791,
      "enti": 792,
      "ate": 793,
      ">)\n": 794,
      "భారతదేశ": 795,
      "&red": 796,
      "?action=edit": 797,
      "link=1": 798,
      "&redlink=1": 799,
      "?action=edit&redlink=1": 800,
      ".శ": 801,
      ".శ.": 802,
      "ers": 803,
      "లో": 804,
      "?action=edit&redlink=1>": 805,
      "ol": 806,
      "्व": 807,
      "-0>)": 808,
      "సా.శ.": 809,
      "▁201": 810,
      "ul": 811,
      "दी": 812,
      "देश": 813,
      "tic": 814,
      "ig": 815,
      "identi": 816,
      "हे": 817,
      "er\\)": 818,
      "▁में": 819,
      "identifi": 820,
      "21": 821,
      "\\(identifi": 822,
      "\\(identifier\\)": 823,
      "त्र": 824,
      "త్ర": 825,
      "▁**": 826,
      "▁to": 827,
      "क्ष": 828,
      "ind": 829,
      "book": 830,
      ")\n": 831,
      "pedia": 832,
      "▁క": 833,
      "es/": 834,
      "▁B": 835,
      "comm": 836,
      "न्": 837,
      ".[[": 838,
      "ष्ट": 839,
      "▁का": 840,
      "ील": 841,
      ".org/wiki": 842,
      "वा": 843,
      "ों": 844,
      "▁आहे": 845,
      "ాలు": 846,
      ".wiki": 847,
      "రి": 848,
      "age": 849,
      "India>": 850,
      "10": 851,
      "वि": 852,
      "క్": 853,
      "ir": 854,
      "ంద": 855,
      "media": 856,
      "ity": 857,
      "50": 858,
      "sia": 859,
      "ion": 860,
      "▁D": 861,
      ".g": 862,
      "px": 863,
      "ని": 864,
      "▁వ": 865,
      ".jpg": 866,
      "ली": 867,
      "In": 868,
      "un": 869,
      "Sp": 870,
      "▁_": 871,
      "sh": 872,
      "st": 873,
      ".wikimedia": 874,
      ".wikimedia.org/wiki": 875,
      "▁h": 876,
      "books": 877,
      "IT": 878,
      "चे": 879,
      "load": 880,
      "upload": 881,
      "commons": 882,
      "arch": 883,
      "angu": 884,
      "![": 885,
      "//upload": 886,
      "pedia/": 887,
      ".wikimedia.org/wikipedia/": 888,
      "//upload.wikimedia.org/wikipedia/": 889,
      "el": 890,
      "ak": 891,
      "](//upload.wikimedia.org/wikipedia/": 892,
      "thum": 893,
      "op": 894,
      "ER": 895,
      "--": 896,
      "-2": 897,
      "सा": 898,
      "/thum": 899,
      "ev": 900,
      "/thumb/": 901,
      "_क": 902,
      "px-": 903,
      "al_": 904,
      ".com": 905,
      "india": 906,
      "ment": 907,
      "EF": 908,
      "स्त": 909,
      "▁ग": 910,
      "ITER": 911,
      "षा": 912,
      "](//upload.wikimedia.org/wikipedia/commons": 913,
      "ల్": 914,
      "199": 915,
      "ITEREF": 916,
      "·**": 917,
      "▁**·**": 918,
      "](//upload.wikimedia.org/wikipedia/commons/thumb/": 919,
      "Un": 920,
      "राज्य": 921,
      "in_": 922,
      "▁श": 923,
      ">).": 924,
      ".com/": 925,
      "ecial": 926,
      "सं": 927,
      "▁[↑](<./India#cite_ref-": 928,
      "40": 929,
      ").": 930,
      "ay": 931,
      "tu": 932,
      "భారతదేశం": 933,
      "▁E": 934,
      "▁है": 935,
      "rc": 936,
      "ष्ट्र": 937,
      "ంగ": 938,
      "Special": 939,
      "%2": 940,
      "▁l": 941,
      "च्या": 942,
      ">),": 943,
      "sv": 944,
      "ती": 945,
      "Special:": 946,
      "चा": 947,
      "▁20": 948,
      "प्र": 949,
      "री": 950,
      ".sv": 951,
      "▁స": 952,
      ")](<./": 953,
      "ap": 954,
      "#C": 955,
      "30": 956,
      "www": 957,
      "भाषा": 958,
      "ly": 959,
      "▁మ": 960,
      "#CITEREF": 961,
      "్రా": 962,
      "rces/": 963,
      ".p": 964,
      "▁उ": 965,
      "▁•": 966,
      "मा": 967,
      "Book": 968,
      "im": 969,
      "▁e": 970,
      "www.": 971,
      "▁G": 972,
      "द्र": 973,
      "▁H": 974,
      "ने": 975,
      "_A": 976,
      "Sources/": 977,
      "Special:Book": 978,
      "Special:BookSources/": 979,
      "▁इ": 980,
      "ive": 981,
      "पु": 982,
      "ీయ": 983,
      "▁200": 984,
      "nt": 985,
      "▁\"भारत": 986,
      "ory": 987,
      "और": 988,
      "Special:BookSources/978": 989,
      "▁सं": 990,
      "s_": 991,
      "ता": 992,
      "ep": 993,
      "11": 994,
      "ber": 995,
      "ండ": 996,
      "मु": 997,
      "ew": 998,
      "ld": 999,
      "▁N": 1000,
      "▁की": 1001,
      "rom": 1002,
      "]](<./भारत#cite_": 1003,
      "त्त": 1004,
      "\").": 1005,
      "र्व": 1006,
      "▁से": 1007,
      "23": 1008,
      "24": 1009,
      "26": 1010,
      "-3": 1011,
      "ry": 1012,
      "rit": 1013,
      "జ్య": 1014,
      "ंड": 1015,
      "▁g": 1016,
      "The": 1017,
      "e_": 1018,
      "cal": 1019,
      "▁చ": 1020,
      "##": 1021,
      "ress": 1022,
      "n_": 1023,
      "ति": 1024,
      "ary": 1025,
      "हि": 1026,
      "ted": 1027,
      "-8": 1028,
      "ून": 1029,
      "▁on": 1030,
      "తా": 1031,
      "od": 1032,
      "▁और": 1033,
      "ము": 1034,
      "anguage": 1035,
      "ub": 1036,
      "ab": 1037,
      "నా": 1038,
      "0%": 1039,
      "ast": 1040,
      "था": 1041,
      "తి": 1042,
      "్ట": 1043,
      "▁re": 1044,
      "▁सा": 1045,
      "▁19": 1046,
      "▁वि": 1047,
      "av": 1048,
      "_S": 1049,
      "▁India\")\n": 1050,
      "](<./India#CITEREF": 1051,
      "-4": 1052,
      "▁या": 1053,
      "▁|": 1054,
      "िल": 1055,
      "calf": 1056,
      "राष्ट्र": 1057,
      "త్": 1058,
      "▁th": 1059,
      "▁[म": 1060,
      "](<./भारत#cite_ref-": 1061,
      "]](<./भारत#cite_note-": 1062,
      "సి": 1063,
      "etcalf": 1064,
      "▁3": 1065,
      "ern": 1066,
      "ivers": 1067,
      "ain": 1068,
      "ge": 1069,
      "archive": 1070,
      "mp": 1071,
      "▁or": 1072,
      "ish": 1073,
      "▁F": 1074,
      "द्": 1075,
      "orld": 1076,
      "▁र": 1077,
      "▁[\"": 1078,
      "hi": 1079,
      "▁n": 1080,
      "\")|": 1081,
      "▁p.": 1082,
      ".in": 1083,
      "_in_": 1084,
      "for": 1085,
      "18": 1086,
      "a_": 1087,
      "▁J": 1088,
      "25": 1089,
      "ध्य": 1090,
      "का": 1091,
      "List": 1092,
      "b.": 1093,
      "os": 1094,
      "ng": 1095,
      "▁ए": 1096,
      "]](<./India#cite_note-FOOTNOTE": 1097,
      "ी_": 1098,
      "onom": 1099,
      "archive.org/": 1100,
      "▁from": 1101,
      "र्म": 1102,
      "ులు": 1103,
      "पा": 1104,
      "▁([": 1105,
      "चित": 1106,
      "▁\\(identifier\\)": 1107,
      "▁\\(identifier\\)\")": 1108,
      "▁य": 1109,
      "యా": 1110,
      "–సా.శ.": 1111,
      "▁రా": 1112,
      "\\(identifier\\)>": 1113,
      "▁by": 1114,
      "्रे": 1115,
      "ి.": 1116,
      "▁(సా.శ.": 1117,
      "![](//upload.wikimedia.org/wikipedia/commons/thumb/": 1118,
      "कार": 1119,
      "ust": 1120,
      "web.": 1121,
      "_\\(identifier\\)>": 1122,
      "](<https://web.": 1123,
      "ते": 1124,
      "▁\"म": 1125,
      "/http": 1126,
      "web/": 1127,
      "archive.org/web/": 1128,
      "](<https://web.archive.org/web/": 1129,
      "-5": 1130,
      "▁అ": 1131,
      "ud": 1132,
      "▁पर": 1133,
      "iversity": 1134,
      "ిక": 1135,
      "](<./म": 1136,
      "णि": 1137,
      "▁ప్ర": 1138,
      "्म": 1139,
      "Ind": 1140,
      "E0%": 1141,
      "ut": 1142,
      "Metcalf": 1143,
      "ith": 1144,
      "ृत": 1145,
      "తం": 1146,
      "uc": 1147,
      "ort": 1148,
      "har": 1149,
      "ount": 1150,
      "▁\"C": 1151,
      "oc": 1152,
      "ational": 1153,
      "22": 1154,
      "17": 1155,
      "चित्र": 1156,
      "og": 1157,
      "▁is": 1158,
      "्रा": 1159,
      "gle": 1160,
      "▁को": 1161,
      "▁[A": 1162,
      "AA": 1163,
      "ిన": 1164,
      "జ్యం": 1165,
      "▁Indian": 1166,
      "art": 1167,
      "60": 1168,
      "](<./C": 1169,
      ".gov": 1170,
      "हा": 1171,
      "id=": 1172,
      "15": 1173,
      "▁ल": 1174,
      "South": 1175,
      "णी": 1176,
      "కు": 1177,
      "జా": 1178,
      ".jpg)](<./": 1179,
      "E0%A": 1180,
      "28": 1181,
      "▁O": 1182,
      "est": 1183,
      ".jpg/": 1184,
      "पू": 1185,
      "ంచ": 1186,
      "ीय_": 1187,
      "▁for": 1188,
      "13": 1189,
      "ens": 1190,
      "s/": 1191,
      "▁प्रदेश": 1192,
      "▁W": 1193,
      "oogle": 1194,
      "late": 1195,
      "4%": 1196,
      "](<./భారతదేశం": 1197,
      "ot": 1198,
      "▁L": 1199,
      "▁हो": 1200,
      "से": 1201,
      "▁K": 1202,
      "▁[ISBN": 1203,
      "ను": 1204,
      "పూ": 1205,
      "▁Asia": 1206,
      ".svg": 1207,
      "द्ध": 1208,
      "िम": 1209,
      "ंद": 1210,
      "---": 1211,
      "▁भ": 1212,
      "-9": 1213,
      "▁4": 1214,
      "▁आहे.": 1215,
      "?id=": 1216,
      "ोक": 1217,
      "'s": 1218,
      "हार": 1219,
      "ప్ర": 1220,
      "భా": 1221,
      ".google": 1222,
      "books.google": 1223,
      ".com/books": 1224,
      "books.google.com/books": 1225,
      "▁[S": 1226,
      "books.google.com/books?id=": 1227,
      "o-": 1228,
      "ore": 1229,
      "p.": 1230,
      "▁१": 1231,
      "](<./ISBN": 1232,
      "▁\"ISBN": 1233,
      "▁[ISBN](<./ISBN": 1234,
      "▁[ISBN](<./ISBN_\\(identifier\\)>": 1235,
      "log": 1236,
      "_\\(": 1237,
      "▁[978": 1238,
      "▁[C": 1239,
      "ద్": 1240,
      "16": 1241,
      "inal": 1242,
      "aj": 1243,
      "▁राज्य": 1244,
      "▁भाषा": 1245,
      "ct": 1246,
      "ింద": 1247,
      "े_": 1248,
      "_of_India>": 1249,
      "▁[↑](<./भारत#cite_ref-": 1250,
      "स्तान": 1251,
      "_and": 1252,
      "शिया": 1253,
      "▁Un": 1254,
      ".in/": 1255,
      "▁\\(": 1256,
      "lag": 1257,
      "](<https://books.google.com/books?id=": 1258,
      "14": 1259,
      "▁\"M": 1260,
      "land": 1261,
      "▁ఉ": 1262,
      "नी": 1263,
      "िय": 1264,
      "▁pp.": 1265,
      "Har": 1266,
      "_P": 1267,
      "▁ఆ": 1268,
      "ff": 1269,
      "lation": 1270,
      "istory": 1271,
      "▁ध": 1272,
      "%E0%A": 1273,
      "Special:BookSources/978-0": 1274,
      "our": 1275,
      "▁देश": 1276,
      "▁The": 1277,
      "hic": 1278,
      "्च": 1279,
      "ont": 1280,
      "ेत्र": 1281,
      "ma": 1282,
      "ंत": 1283,
      "-7": 1284,
      "br": 1285,
      "ow": 1286,
      "मान": 1287,
      "](<./क": 1288,
      "▁\"क": 1289,
      "▁\"स": 1290,
      "మా": 1291,
      "▁\"S": 1292,
      "▁कर": 1293,
      "▁[↑](<./India#cite_ref-FOOTNOTE": 1294,
      "ism": 1295,
      "](<./स": 1296,
      "rad": 1297,
      "▁be": 1298,
      "రు": 1299,
      "▁సా": 1300,
      "umm": 1301,
      "భారతీయ": 1302,
      "47": 1303,
      "ha": 1304,
      "_.": 1305,
      "CS": 1306,
      "धान": 1307,
      "వా": 1308,
      ".png": 1309,
      "](<./M": 1310,
      "ंध": 1311,
      "ong": 1312,
      ">)[[": 1313,
      "lig": 1314,
      "_C": 1315,
      "िण": 1316,
      "▁ర": 1317,
      "ys": 1318,
      "ही": 1319,
      "ुर": 1320,
      "बा": 1321,
      "िश": 1322,
      "](<./S": 1323,
      "ance": 1324,
      "_D": 1325,
      "27": 1326,
      "వి": 1327,
      "▁है।": 1328,
      "▁[M": 1329,
      "und": 1330,
      "\"))\n": 1331,
      "▁orig": 1332,
      "ష్ట": 1333,
      "ార్": 1334,
      "పూ.": 1335,
      "गर": 1336,
      "ड़": 1337,
      "▁भारतीय": 1338,
      "emp": 1339,
      "▁In": 1340,
      "tern": 1341,
      "हर": 1342,
      "ुस": 1343,
      "▁te": 1344,
      "](<http://": 1345,
      "_म": 1346,
      "cy": 1347,
      "err": 1348,
      "्यां": 1349,
      "స్థ": 1350,
      "రిత్ర": 1351,
      "క్ష": 1352,
      "▁&": 1353,
      "▁as": 1354,
      "Flag": 1355,
      "क्षिण": 1356,
      "▁I": 1357,
      "1.": 1358,
      "जी": 1359,
      "▁\"B": 1360,
      "PA": 1361,
      "rch": 1362,
      "▁[क": 1363,
      "s>": 1364,
      "ther": 1365,
      "▁[B": 1366,
      "ाली": 1367,
      "_के_": 1368,
      "▁original": 1369,
      "29": 1370,
      "tate": 1371,
      "న్న": 1372,
      "▁\"P": 1373,
      "&p": 1374,
      "a>": 1375,
      "-6": 1376,
      "ile": 1377,
      "ंत्र": 1378,
      "ture": 1379,
      "%E0%A4%": 1380,
      "ans": 1381,
      "_p": 1382,
      "ोल": 1383,
      "\\)>": 1384,
      "वे": 1385,
      "जा": 1386,
      "▁राज": 1387,
      ".svg/": 1388,
      ".svg.png": 1389,
      "error": 1390,
      "▁\"A": 1391,
      "ug": 1392,
      "titu": 1393,
      "all": 1394,
      "म्रा": 1395,
      "](<./P": 1396,
      "िल्": 1397,
      "कि": 1398,
      "Flag_of_": 1399,
      "_M": 1400,
      "▁स्": 1401,
      "दा": 1402,
      "](<./B": 1403,
      "स्क": 1404,
      "ensus": 1405,
      "ear": 1406,
      "tein": 1407,
      "ence": 1408,
      "eved": 1409,
      "s,": 1410,
      "णा": 1411,
      "ank": 1412,
      "▁[स": 1413,
      "tim": 1414,
      "▁Ret": 1415,
      "▁\"अ": 1416,
      "ातील": 1417,
      "38": 1418,
      "7.": 1419,
      "conom": 1420,
      "g=": 1421,
      "rieved": 1422,
      "_in_India>": 1423,
      "](<./భారతదేశం#cite_": 1424,
      "&pg=": 1425,
      "▁Retrieved": 1426,
      "35": 1427,
      "](<./अ": 1428,
      "2006": 1429,
      "ef": 1430,
      "Indian": 1431,
      "istan": 1432,
      "▁with": 1433,
      "overn": 1434,
      "ire": 1435,
      "ाने": 1436,
      "ived": 1437,
      "గా": 1438,
      "ian": 1439,
      "▁एक": 1440,
      "-19": 1441,
      "ex": 1442,
      "ies": 1443,
      "esh": 1444,
      "▁Press": 1445,
      "_T": 1446,
      "▁[अ": 1447,
      "्क": 1448,
      "ంట": 1449,
      "కి": 1450,
      "▁ना": 1451,
      "▁ex": 1452,
      "▁ख": 1453,
      "ve": 1454,
      "म्": 1455,
      "ం:": 1456,
      "మ్రా": 1457,
      "](<https://www.": 1458,
      "ష్ట్ర": 1459,
      "ुसार": 1460,
      "48": 1461,
      "▁अस": 1462,
      "थान": 1463,
      "▁आहेत": 1464,
      "ంత": 1465,
      "ummit": 1466,
      "_India": 1467,
      "ss": 1468,
      "ख्य": 1469,
      "िस": 1470,
      "ard": 1471,
      "▁प्रा": 1472,
      "▁_[": 1473,
      "70": 1474,
      "6.": 1475,
      "ulation": 1476,
      "िव": 1477,
      "2018": 1478,
      "▁language": 1479,
      "&pg=PA": 1480,
      "▁पु": 1481,
      "_G": 1482,
      "250": 1483,
      "ord": 1484,
      "ages": 1485,
      "चित्र:": 1486,
      "పు": 1487,
      "2011": 1488,
      "ubl": 1489,
      "▁घ": 1490,
      "ana": 1491,
      "ass": 1492,
      "त्तर": 1493,
      "oi": 1494,
      "ric": 1495,
      "ीप": 1496,
      "▁న": 1497,
      "opulation": 1498,
      "▁च": 1499,
      "▁[P": 1500,
      "-10": 1501,
      "rchived": 1502,
      "_प्र": 1503,
      "शास": 1504,
      "మి": 1505,
      "ాన": 1506,
      "▁University": 1507,
      "overnment": 1508,
      "ere": 1509,
      "nic": 1510,
      "2.": 1511,
      "ज़": 1512,
      "वर": 1513,
      "▁no": 1514,
      "5.": 1515,
      "_B": 1516,
      "పా": 1517,
      "▁\"T": 1518,
      "ries": 1519,
      "భాష": 1520,
      "_R": 1521,
      "िर": 1522,
      "राष्ट्रीय": 1523,
      "_b": 1524,
      "](<./T": 1525,
      "\").\n": 1526,
      "](<https://web.archive.org/web/201": 1527,
      "_s": 1528,
      "पर": 1529,
      "arg": 1530,
      "onstitu": 1531,
      "▁was": 1532,
      "outh": 1533,
      "33": 1534,
      "▁r": 1535,
      "▁हे": 1536,
      "चीन": 1537,
      "भाषा>": 1538,
      "म्राज": 1539,
      "_m": 1540,
      "/https://": 1541,
      "वी": 1542,
      "िळ": 1543,
      "పాల": 1544,
      "▁త": 1545,
      "eral": 1546,
      "స్త్ర": 1547,
      "ah": 1548,
      "ach": 1549,
      "हास": 1550,
      "▁झ": 1551,
      "indu": 1552,
      "▁are": 1553,
      "ai": 1554,
      "मी": 1555,
      "▁\"E": 1556,
      "స్తా": 1557,
      "ेंद्र": 1558,
      "orth": 1559,
      "▁an": 1560,
      "end": 1561,
      "धिक": 1562,
      "లీ": 1563,
      "ాయ": 1564,
      "▁ఇ": 1565,
      "▁దేశ": 1566,
      "ine": 1567,
      "htm": 1568,
      "_N": 1569,
      "गु": 1570,
      "ke": 1571,
      "टी": 1572,
      "ts": 1573,
      "anguages": 1574,
      "%2C": 1575,
      "▁मु": 1576,
      "ाला": 1577,
      "rou": 1578,
      "क्त": 1579,
      "मन": 1580,
      "](<./A": 1581,
      "▁[D": 1582,
      "▁[ब": 1583,
      "ेला": 1584,
      "▁V": 1585,
      "▁\"D": 1586,
      "विश": 1587,
      "---\n": 1588,
      "per": 1589,
      "▁[भारत": 1590,
      "किस्तान": 1591,
      "మ్రాజ్యం": 1592,
      "देश>": 1593,
      "](<./D": 1594,
      "▁\"G": 1595,
      "omm": 1596,
      "▁जात": 1597,
      "hm": 1598,
      "तम": 1599,
      "ूची": 1600,
      "](<./List": 1601,
      "▁\"List": 1602,
      "దేశ్": 1603,
      "](<./List_of_": 1604,
      "36": 1605,
      "_स": 1606,
      "ेर": 1607,
      "ical": 1608,
      "ोर": 1609,
      "▁क्ष": 1610,
      "iss": 1611,
      "sher": 1612,
      "8.": 1613,
      "▁[![](//upload.wikimedia.org/wikipedia/commons/thumb/": 1614,
      "▁ने": 1615,
      "39": 1616,
      "ंब": 1617,
      "टक": 1618,
      "वर्": 1619,
      "ం](<./": 1620,
      "rap": 1621,
      "ll": 1622,
      "ाच्या": 1623,
      "▁it": 1624,
      "ite": 1625,
      "](<./E": 1626,
      "▁वर्": 1627,
      "ountries": 1628,
      "ark": 1629,
      "ంబ": 1630,
      "టి": 1631,
      "artic": 1632,
      "र्थ": 1633,
      "▁\"भारतीय": 1634,
      "ध्ये": 1635,
      "तात": 1636,
      "▁\"ब": 1637,
      "ase": 1638,
      "ited": 1639,
      "2010": 1640,
      "eg": 1641,
      "▁v": 1642,
      "▁[2": 1643,
      "▁पा": 1644,
      "हारा": 1645,
      "45": 1646,
      "Stein": 1647,
      "hin": 1648,
      "ంలో": 1649,
      "▁हैं": 1650,
      "/http://": 1651,
      "స్తాన్": 1652,
      "](<./ब": 1653,
      "77": 1654,
      "80": 1655,
      "ral": 1656,
      "यु": 1657,
      "lop": 1658,
      "language": 1659,
      "%20": 1660,
      "4.": 1661,
      "49": 1662,
      "df": 1663,
      "त्": 1664,
      "धार": 1665,
      "ेष": 1666,
      "గు": 1667,
      "డు": 1668,
      "నే": 1669,
      "్చ": 1670,
      "▁199": 1671,
      "20px-": 1672,
      "▁वा": 1673,
      "](<./भारतीय_": 1674,
      "-p": 1675,
      "नुसार": 1676,
      "ोग": 1677,
      "▁[1": 1678,
      "india.gov": 1679,
      "),": 1680,
      "AJ": 1681,
      "se": 1682,
      "लेख": 1683,
      "ford": 1684,
      "िल्ली": 1685,
      "भाग": 1686,
      "250px-": 1687,
      "BAJ": 1688,
      "QBAJ": 1689,
      "ions": 1690,
      "s.": 1691,
      "ue": 1692,
      "మూ": 1693,
      "](<./G": 1694,
      "▁\"N": 1695,
      "్రీ": 1696,
      "्यात": 1697,
      "▁आणि": 1698,
      "_Asia": 1699,
      "udd": 1700,
      "జాత": 1701,
      "▁[978-0": 1702,
      "▁क्षेत्र": 1703,
      "3.": 1704,
      "au": 1705,
      "ction": 1706,
      "Harv": 1707,
      "दक्षिण": 1708,
      "tem": 1709,
      "aint": 1710,
      "म्राज्य": 1711,
      "ం>": 1712,
      "కా": 1713,
      "లా": 1714,
      "ంగా": 1715,
      ",_": 1716,
      "/c": 1717,
      "ni": 1718,
      "▁अभ": 1719,
      "xford": 1720,
      "न>": 1721,
      "_](<https://books.google.com/books?id=": 1722,
      "शी": 1723,
      "డ్": 1724,
      "ిల్": 1725,
      "90": 1726,
      "_E": 1727,
      "ंगाल": 1728,
      "िन्": 1729,
      "िका": 1730,
      "▁2011": 1731,
      "ार्": 1732,
      "-1>)": 1733,
      "46": 1734,
      "RI": 1735,
      "oli": 1736,
      "లి": 1737,
      "▁జ": 1738,
      "erv": 1739,
      "ani": 1740,
      "Special:BookSources/978-1": 1741,
      "AAQBAJ": 1742,
      "द्य": 1743,
      "▁5": 1744,
      "▁धर्म": 1745,
      "ublic": 1746,
      "9.": 1747,
      "▁[![": 1748,
      "पूर्व": 1749,
      "ణా": 1750,
      "ధిక": 1751,
      "▁error": 1752,
      "](<./N": 1753,
      "eng": 1754,
      "జాతీయ": 1755,
      "other": 1756,
      "ingh": 1757,
      "ath": 1758,
      "cre": 1759,
      "त्य": 1760,
      "रकार": 1761,
      "▁[N": 1762,
      "%28": 1763,
      ".pdf": 1764,
      "MetcalfMetcalf": 1765,
      "..": 1766,
      "ज्": 1767,
      "श्च": 1768,
      "ूल": 1769,
      "దక్ష": 1770,
      "▁\"R": 1771,
      "▁मो": 1772,
      "ाना": 1773,
      "▁ప్రా": 1774,
      "ंग्रे": 1775,
      "▁వి": 1776,
      "▁సం": 1777,
      "▁చరిత్ర": 1778,
      "hich": 1779,
      "PD": 1780,
      "cl": 1781,
      "ition": 1782,
      "▁7": 1783,
      "riti": 1784,
      "ograp": 1785,
      "ठा": 1786,
      "पाकिस्तान": 1787,
      "पट": 1788,
      "पी": 1789,
      "ल्या": 1790,
      ".pdf>)": 1791,
      "\\.": 1792,
      "డి": 1793,
      "▁–": 1794,
      "ata": 1795,
      "▁which": 1796,
      "ult": 1797,
      "हिन्": 1798,
      "onstitution": 1799,
      "ati": 1800,
      "new": 1801,
      "▁भारतात": 1802,
      "ember": 1803,
      "###": 1804,
      "fn": 1805,
      "000": 1806,
      ".svg.png)": 1807,
      "हाराष्ट्र": 1808,
      "2004": 1809,
      "ib": 1810,
      "की": 1811,
      "न\")": 1812,
      "पं": 1813,
      "ంధ": 1814,
      "](<./R": 1815,
      "స్త": 1816,
      "्वीप": 1817,
      "indi": 1818,
      "సియా": 1819,
      "▁రాజ్యం": 1820,
      "▁సామ్రాజ్యం": 1821,
      "▁2007": 1822,
      "कर": 1823,
      "वं": 1824,
      "▁[G": 1825,
      "als": 1826,
      "eve": 1827,
      "%E0%A4%B": 1828,
      "श्चिम": 1829,
      "56": 1830,
      "हु": 1831,
      "तिहास": 1832,
      "_न": 1833,
      "ूर": 1834,
      "ది": 1835,
      "దీ": 1836,
      "వం": 1837,
      "▁బ": 1838,
      "](<./Special:BookSources/978-0": 1839,
      "▁\"आ": 1840,
      "▁\"Special:BookSources/978-0": 1841,
      ">).\n": 1842,
      "territ": 1843,
      "_की_": 1844,
      "ండి": 1845,
      "దక్షి": 1846,
      "port": 1847,
      "थि": 1848,
      "ल्": 1849,
      "\")_": 1850,
      "▁at": 1851,
      "_of_India": 1852,
      "▁ति": 1853,
      "43": 1854,
      "चल": 1855,
      "लोक": 1856,
      "ame": 1857,
      "श्रे": 1858,
      "▁२": 1859,
      "any": 1860,
      "▁has": 1861,
      "gen": 1862,
      "rov": 1863,
      "తర": 1864,
      "▁South": 1865,
      "%29": 1866,
      "evelop": 1867,
      "41": 1868,
      "ob": 1869,
      "ese": 1870,
      "icial": 1871,
      "▁[Archived": 1872,
      "ile:": 1873,
      "PDF": 1874,
      "_d": 1875,
      "▁[T": 1876,
      "ties": 1877,
      "ess": 1878,
      "▁India's": 1879,
      "जाब": 1880,
      "▁[R": 1881,
      "ali": 1882,
      "▁स्व": 1883,
      "▁st": 1884,
      "html": 1885,
      "_చ": 1886,
      "_%28": 1887,
      "|\n": 1888,
      "ట్": 1889,
      "ిత": 1890,
      "▁\"ज": 1891,
      "▁that": 1892,
      "पंजाब": 1893,
      "श्रेणी": 1894,
      "जरा": 1895,
      "](<./आ": 1896,
      "CS1": 1897,
      "bot": 1898,
      "albot": 1899,
      "स्थान": 1900,
      "RICS": 1901,
      "ond": 1902,
      ".jpg)](<./चित्र:": 1903,
      "▁१९": 1904,
      "▁भाषा\")\n": 1905,
      "duc": 1906,
      "sland": 1907,
      "गण": 1908,
      "िग": 1909,
      "](<./ज": 1910,
      "▁\"మ": 1911,
      "out": 1912,
      "▁(PDF": 1913,
      "▁India\")": 1914,
      "ंगा": 1915,
      "दी>": 1916,
      "ृत्य": 1917,
      "श्रेणी:": 1918,
      "a/": 1919,
      "qu": 1920,
      "ळे": 1921,
      "▁18": 1922,
      "ange": 1923,
      "स्ट": 1924,
      ".jpg/250px-": 1925,
      "▁आहेत.": 1926,
      "fe": 1927,
      "to": 1928,
      "ैद": 1929,
      "▁un": 1930,
      "ालय": 1931,
      "ational_": 1932,
      "▁\"इ": 1933,
      "aste": 1934,
      "ंतर": 1935,
      "Asher": 1936,
      "File:": 1937,
      "World": 1938,
      "ost": 1939,
      "िट": 1940,
      "దస్త్ర": 1941,
      "▁ఎ": 1942,
      "▁ch": 1943,
      "inist": 1944,
      "ome": 1945,
      "akistan": 1946,
      "United": 1947,
      "▁(సా.శ.పూ.": 1948,
      "---|": 1949,
      "logy": 1950,
      "ింది.": 1951,
      "దస్త్రం:": 1952,
      "row": 1953,
      "_भारत": 1954,
      "elhi": 1955,
      "matic": 1956,
      "विशेष": 1957,
      "world": 1958,
      "▁8": 1959,
      "](<./इ": 1960,
      "2009": 1961,
      "िक्ष": 1962,
      "▁बा": 1963,
      "ज्ञ": 1964,
      "gh": 1965,
      "me": 1966,
      "ठी": 1967,
      "ధ్య": 1968,
      "ant": 1969,
      "ury": 1970,
      "ంద్ర": 1971,
      ".jpg>)": 1972,
      "चा:": 1973,
      "▁पुरा": 1974,
      "विशेष:": 1975,
      "37": 1976,
      "_1": 1977,
      "प्त": 1978,
      "ritish": 1979,
      "hy": 1980,
      "हित": 1981,
      "िं": 1982,
      "▁\"H": 1983,
      "▁10": 1984,
      "स्था": 1985,
      "▁संस्क": 1986,
      "AAQBAJ&pg=PA": 1987,
      "\"\n": 1988,
      "pe": 1989,
      "मध्ये": 1990,
      "196": 1991,
      "2007": 1992,
      "umb": 1993,
      "माण": 1994,
      "4/": 1995,
      "_c": 1996,
      "ైన": 1997,
      "](<./మ": 1998,
      "▁పే": 1999,
      "शासित": 2000,
      "8/": 2001,
      "▁[K": 2002,
      "ontin": 2003,
      "▁[E": 2004,
      "indust": 2005,
      "10.": 2006,
      "mpire": 2007,
      "olitic": 2008,
      "ीर": 2009,
      "ांची": 2010,
      "ట్ట": 2011,
      "శా": 2012,
      "](<./H": 2013,
      "▁[మ": 2014,
      "ारी": 2015,
      "ous": 2016,
      "rav": 2017,
      "South_Asia": 2018,
      "ద్ధ": 2019,
      "सी": 2020,
      "econom": 2021,
      "\"](<https://web.archive.org/web/201": 2022,
      "-b": 2023,
      "-m": 2024,
      "34": 2025,
      "DP": 2026,
      "श्म": 2027,
      "ोत": 2028,
      "▁[_": 2029,
      "an_": 2030,
      "▁सरकार": 2031,
      "▁पू": 2032,
      "ंडिया": 2033,
      "brid": 2034,
      "बर": 2035,
      "व्य": 2036,
      "▁\"The": 2037,
      "ulture": 2038,
      ".jpg>)\n": 2039,
      "](<https://web.archive.org/web/20": 2040,
      "ographic": 2041,
      "-d": 2042,
      "दे": 2043,
      "హింద": 2044,
      "ించ": 2045,
      "▁ఒ": 2046,
      "▁గ": 2047,
      "▁భాష": 2048,
      "iksh": 2049,
      "ాల్": 2050,
      "amil": 2051,
      "](<./India#cite_ref-FOOTNOTE": 2052,
      "epend": 2053,
      "▁ये": 2054,
      "times": 2055,
      "_प्रदेश>": 2056,
      "MetcalfMetcalf2006": 2057,
      "evelopment": 2058,
      "श्रेणी:Harv": 2059,
      "ikshit": 2060,
      "ख्या": 2061,
      "ood": 2062,
      "▁अन": 2063,
      "\\)\")": 2064,
      "-s": 2065,
      "_आ": 2066,
      "ty": 2067,
      "िंध": 2068,
      "्री": 2069,
      "ect": 2070,
      "emplate": 2071,
      "tates": 2072,
      "ansk": 2073,
      "dit": 2074,
      "40px-": 2075,
      "▁its": 2076,
      "/978": 2077,
      "]](<./భారతదేశం#cite_": 2078,
      "hand": 2079,
      "िन": 2080,
      "కో": 2081,
      "చ్చ": 2082,
      "జీ": 2083,
      "ేంద్ర": 2084,
      "▁फ": 2085,
      "▁భారతదేశం": 2086,
      "▁\"K": 2087,
      "temp": 2088,
      "्रिट": 2089,
      "anc": 2090,
      "isation": 2091,
      "usic": 2092,
      "▁जन": 2093,
      "ంగ్": 2094,
      "Indo-": 2095,
      "▁तिथि": 2096,
      "Asia": 2097,
      "रु": 2098,
      "्ह": 2099,
      "ाले": 2100,
      "ambrid": 2101,
      "क्षेत्र": 2102,
      "▁temp": 2103,
      "RC": 2104,
      "]:": 2105,
      "les": 2106,
      "धर्म": 2107,
      "भू": 2108,
      "म्म": 2109,
      "▁\"Indian": 2110,
      "\")**": 2111,
      "▁मान": 2112,
      "▁cent": 2113,
      "▁2014": 2114,
      "ountry": 2115,
      "चित्रपट": 2116,
      "roup": 2117,
      "anskrit": 2118,
      "mb": 2119,
      "iver": 2120,
      "85": 2121,
      "led": 2122,
      "उत्तर": 2123,
      "ोन": 2124,
      "కృ": 2125,
      "త్య": 2126,
      "బ్": 2127,
      "మీ": 2128,
      "▁[the": 2129,
      "rig": 2130,
      "over": 2131,
      "రాష్ట్ర": 2132,
      "conomy": 2133,
      "▁तिथि:": 2134,
      "_F": 2135,
      "_भाषा>": 2136,
      "ho": 2137,
      "णे": 2138,
      "ेट": 2139,
      "▁[इ": 2140,
      "▁हा": 2141,
      "स्व": 2142,
      "51": 2143,
      "_the": 2144,
      "ीम": 2145,
      "नाड": 2146,
      "ांत": 2147,
      "▁गण": 2148,
      ".svg/40px-": 2149,
      "गुजरा": 2150,
      "-g": 2151,
      "2>)": 2152,
      "गातील": 2153,
      "डिया": 2154,
      "सम": 2155,
      "▁k": 2156,
      "tive": 2157,
      "नेक": 2158,
      "▁साम्राज्य": 2159,
      "language>": 2160,
      "-l": 2161,
      "31": 2162,
      "[![](//upload.wikimedia.org/wikipedia/commons/thumb/": 2163,
      "ढ़": 2164,
      "ంక": 2165,
      "ప్": 2166,
      "యు": 2167,
      "▁U": 2168,
      "lection": 2169,
      "్యా": 2170,
      "lion": 2171,
      "తంత్ర": 2172,
      "](<./భారతదేశం#cite_ref-": 2173,
      "▁अभिग": 2174,
      "]](<./భారతదేశం#cite_note-": 2175,
      "▁अभिगमन": 2176,
      "ta": 2177,
      "ीत": 2178,
      "▁अनेक": 2179,
      "ement": 2180,
      "Oxford": 2181,
      "oh": 2182,
      "ैन": 2183,
      "](<./K": 2184,
      "्रोत": 2185,
      "ork": 2186,
      "low": 2187,
      "▁तथा": 2188,
      "▁नि": 2189,
      "old": 2190,
      "_का": 2191,
      "▁History": 2192,
      "पुर": 2193,
      "ave": 2194,
      "yson": 2195,
      "2005": 2196,
      "ंग्": 2197,
      "स्तक": 2198,
      "▁उप": 2199,
      "](<http://www.": 2200,
      "india.gov.in/": 2201,
      "IN": 2202,
      "_స": 2203,
      "census": 2204,
      "hr": 2205,
      "lia": 2206,
      "ृष्": 2207,
      "ौद्ध": 2208,
      "తము": 2209,
      "ాన్": 2210,
      "▁9": 2211,
      "late_": 2212,
      "▁pro": 2213,
      "ril": 2214,
      "urop": 2215,
      "▁reg": 2216,
      "ligion": 2217,
      "conomic": 2218,
      "तात.": 2219,
      "▁हैं।": 2220,
      "ిల్లీ": 2221,
      "దక్షిణ": 2222,
      "▁[ज": 2223,
      "▁रो": 2224,
      "्रिटिश": 2225,
      "▁template": 2226,
      "59": 2227,
      "doi": 2228,
      "pp": 2229,
      "रब": 2230,
      "ेत": 2231,
      "▁6": 2232,
      "▁ट": 2233,
      "ashm": 2234,
      "uring": 2235,
      "ild": 2236,
      "▁languages": 2237,
      "120px-": 2238,
      "man": 2239,
      "▁were": 2240,
      "▁this": 2241,
      "ontinent": 2242,
      "PP": 2243,
      "पश्चिम": 2244,
      "ధాన": 2245,
      "బె": 2246,
      "వే": 2247,
      "శ్": 2248,
      "alth": 2249,
      "alay": 2250,
      "ారు": 2251,
      "2014": 2252,
      "ames": 2253,
      "hel": 2254,
      "emb": 2255,
      "igh": 2256,
      "विध": 2257,
      "ంది.": 2258,
      "साँ": 2259,
      "पुस्तक": 2260,
      "AARC": 2261,
      ".jpg)](<./దస్త్రం:": 2262,
      "▁भू": 2263,
      "▁[978-1": 2264,
      "विशेष:पुस्तक": 2265,
      "्रोत/978": 2266,
      "lish": 2267,
      "▁[L": 2268,
      "rest": 2269,
      "▁काळ": 2270,
      "1998": 2271,
      "ते.": 2272,
      "/https://www.": 2273,
      "तमिळ": 2274,
      "▁वर्ष": 2275,
      "4>)": 2276,
      "Dw": 2277,
      "तु": 2278,
      "दिल्ली": 2279,
      "ree": 2280,
      "▁ad": 2281,
      "lim": 2282,
      "▁mil": 2283,
      "▁26": 2284,
      "radesh": 2285,
      "_by": 2286,
      "डी": 2287,
      "](<./ग": 2288,
      "▁\"ग": 2289,
      "er,": 2290,
      "/0": 2291,
      "330": 2292,
      ":CS1": 2293,
      "na": 2294,
      "జి": 2295,
      "దు": 2296,
      "మ్": 2297,
      "ష్": 2298,
      "▁sub": 2299,
      "్యవ": 2300,
      "▁नदी": 2301,
      "▁2021": 2302,
      "▁రాజ": 2303,
      "Stein2010": 2304,
      "_చరిత్ర": 2305,
      "continent": 2306,
      "s\")\n": 2307,
      "वन": 2308,
      "▁,": 2309,
      "▁le": 2310,
      "▁[H": 2311,
      "▁17": 2312,
      "▁2019": 2313,
      "ंदिर": 2314,
      "NG": 2315,
      "iew": 2316,
      "द्वीप": 2317,
      "रे": 2318,
      "](<./Indian_": 2319,
      "▁आशिया": 2320,
      "Incre": 2321,
      "▁Hindu": 2322,
      "▁संस्कृ": 2323,
      "57": 2324,
      "71": 2325,
      "▁[ग": 2326,
      "\"))": 2327,
      "▁सम": 2328,
      "omp": 2329,
      "aint:": 2330,
      ".;": 2331,
      "2/": 2332,
      "Edit": 2333,
      "ఢిల్లీ": 2334,
      "పంచ": 2335,
      "▁\"L": 2336,
      "thor": 2337,
      "▁मेला": 2338,
      "ారి": 2339,
      "rate": 2340,
      "ign": 2341,
      "▁शिक्ष": 2342,
      ".jpg)](<./File:": 2343,
      "మూస": 2344,
      "▁రాజ్యం|": 2345,
      ".nic": 2346,
      "ब्": 2347,
      "▁भाग": 2348,
      "ारा": 2349,
      "भारतीय": 2350,
      "▁ही": 2351,
      "▁15": 2352,
      "act": 2353,
      "a\")\n": 2354,
      "uary": 2355,
      "▁[न": 2356,
      "ated": 2357,
      "age/": 2358,
      "विधान": 2359,
      "irst": 2360,
      "▁यु": 2361,
      "year": 2362,
      "▁चित्रपट": 2363,
      "now": 2364,
      "▁per": 2365,
      "▁भारताच्या": 2366,
      "60px-": 2367,
      "▁Asian": 2368,
      "ystem": 2369,
      "ambridge": 2370,
      "/p": 2371,
      "gan": 2372,
      "వు": 2373,
      "](<./L": 2374,
      "▁\"క": 2375,
      "▁\"భారతీయ": 2376,
      "ise": 2377,
      "▁सर्व": 2378,
      "lear": 2379,
      "▁हु": 2380,
      "▁Comm": 2381,
      "ंग्र": 2382,
      "▁2010": 2383,
      "▁కా": 2384,
      "une": 2385,
      "odern": 2386,
      "_में": 2387,
      "ission": 2388,
      "-c": 2389,
      "-20": 2390,
      "_language>": 2391,
      "खंड": 2392,
      "जात": 2393,
      "डा": 2394,
      "बंध": 2395,
      "ेक": 2396,
      "्रम": 2397,
      "▁पूर्व": 2398,
      "-india": 2399,
      "65": 2400,
      "87": 2401,
      "JP": 2402,
      "eop": 2403,
      "दू": 2404,
      "▁ऑ": 2405,
      "cies": 2406,
      ".svg.png)](<./": 2407,
      "लेखित": 2408,
      ".svg/40px-Flag_of_": 2409,
      "help": 2410,
      "ोब": 2411,
      "\"](<https://www.": 2412,
      "iod": 2413,
      "pril": 2414,
      "ंप": 2415,
      "००": 2416,
      "జన": 2417,
      "టు": 2418,
      "టె": 2419,
      "▁la": 2420,
      "▁[క": 2421,
      "ined": 2422,
      "ories": 2423,
      "▁सूची": 2424,
      "2003": 2425,
      "](<./भारत#CITEREF": 2426,
      "▁చె": 2427,
      "నాయ": 2428,
      "–సా.శ.పూ.": 2429,
      "-521": 2430,
      "▁ఆర్": 2431,
      "పాలిత": 2432,
      "inistry": 2433,
      "ज्ञान": 2434,
      "ేంద్రపాలిత": 2435,
      "_L": 2436,
      "are": 2437,
      "सद": 2438,
      "▁अधिक": 2439,
      "rip": 2440,
      "anges": 2441,
      "▁बहु": 2442,
      "berg": 2443,
      "Talbot": 2444,
      "air": 2445,
      "uch": 2446,
      "धी": 2447,
      "–1": 2448,
      "comp": 2449,
      "usin": 2450,
      "▁ते": 2451,
      "uly": 2452,
      "ower": 2453,
      "ेंद्रशासित": 2454,
      "article": 2455,
      "AsherTalbot": 2456,
      "urope": 2457,
      "uk": 2458,
      "ूप": 2459,
      "rib": 2460,
      "▁दक्षिण": 2461,
      "राजस्थान": 2462,
      "▁विविध": 2463,
      "3>)": 2464,
      "7/": 2465,
      "74": 2466,
      "Page/": 2467,
      "mund": 2468,
      "ఖ్య": 2469,
      "గో": 2470,
      "తో": 2471,
      "దా": 2472,
      "బి": 2473,
      "హి": 2474,
      "ide": 2475,
      "స్కృ": 2476,
      "▁Th": 2477,
      ".jpg>": 2478,
      "▁शास": 2479,
      "मुख": 2480,
      "मुद्र": 2481,
      "▁लोक": 2482,
      "othermund": 2483,
      "▁ప్రాంత": 2484,
      "▁చరిత్ర\")\n": 2485,
      "EditPage/": 2486,
      "2_": 2487,
      "ms": 2488,
      "wart": 2489,
      "zberg": 2490,
      "ळी": 2491,
      "ाची": 2492,
      "▁राष्ट्र": 2493,
      "▁Ind": 2494,
      "ice": 2495,
      "chwart": 2496,
      "मुळे": 2497,
      "पूर": 2498,
      "▁भी": 2499,
      "▁रोजी": 2500,
      "chwartzberg": 2501,
      "5>)": 2502,
      "gy": 2503,
      "hp": 2504,
      "lass": 2505,
      "mer": 2506,
      "\").[[": 2507,
      "ari": 2508,
      "](<./भारत_के_": 2509,
      "](<./भारत_में": 2510,
      "-17": 2511,
      "ulke": 2512,
      "uclear": 2513,
      "ंबई": 2514,
      "/http://www.": 2515,
      "के": 2516,
      "जन": 2517,
      "](<./न": 2518,
      "▁[आ": 2519,
      "▁\"न": 2520,
      "\")_.": 2521,
      "पुरा": 2522,
      "▁[Archived](<https://web.archive.org/web/20": 2523,
      "---|---\n": 2524,
      "91": 2525,
      "_ప": 2526,
      "ail": 2527,
      "dom": 2528,
      "f/": 2529,
      "fter": 2530,
      "hal": 2531,
      "హా": 2532,
      "▁ను": 2533,
      "▁territ": 2534,
      "rab": 2535,
      "2008": 2536,
      "न्न": 2537,
      "University": 2538,
      "్యవస్థ": 2539,
      ".\"\n": 2540,
      "62": 2541,
      "national": 2542,
      "rof": 2543,
      "▁ड": 2544,
      "ats": 2545,
      "▁इस": 2546,
      "▁इतिहास": 2547,
      "▁स्था": 2548,
      "IA": 2549,
      "मार": 2550,
      "ाक": 2551,
      "१९": 2552,
      "on-": 2553,
      "eneral": 2554,
      "uman": 2555,
      "▁April": 2556,
      "Intern": 2557,
      "▁[भारतीय": 2558,
      "युक्त": 2559,
      "नाडू": 2560,
      "Increase": 2561,
      "▁[W": 2562,
      "brary": 2563,
      "-in": 2564,
      "aw": 2565,
      "ck": 2566,
      "mar": 2567,
      "tt": 2568,
      "वस्था": 2569,
      "డా": 2570,
      "బడ": 2571,
      "మే": 2572,
      "రణ": 2573,
      "ి.\n": 2574,
      "▁జాతీయ": 2575,
      "▁\"F": 2576,
      "isc": 2577,
      "ister": 2578,
      "्त्र": 2579,
      "▁An": 2580,
      "life": 2581,
      "▁25": 2582,
      "▁కూ": 2583,
      "ాలు,": 2584,
      "ాలు>": 2585,
      "ాలు](<./": 2586,
      "▁రాష్ట్ర": 2587,
      "కిస్తాన్": 2588,
      "ंग्रेज़": 2589,
      "_की_स": 2590,
      "श्मीर": 2591,
      "emplate:": 2592,
      "6>)": 2593,
      "▁राष्ट्रीय": 2594,
      "▁year": 2595,
      "्यान": 2596,
      "▁India,": 2597,
      ".nic.in/": 2598,
      "▁स्थाप": 2599,
      "2-0>)": 2600,
      "fr": 2601,
      "ure": 2602,
      "▁[सं": 2603,
      "India_": 2604,
      "eration": 2605,
      "▁*[": 2606,
      "omb": 2607,
      "ack": 2608,
      "▁cons": 2609,
      "_and_S": 2610,
      "▁स्थान": 2611,
      "ashmir": 2612,
      "8>)": 2613,
      "ण्": 2614,
      "धील": 2615,
      "idd": 2616,
      "▁विक": 2617,
      "▁16": 2618,
      "मुंबई": 2619,
      "▁साहित": 2620,
      "तेल": 2621,
      "▁होता": 2622,
      "तमिळनाडू": 2623,
      "C&pg=PA": 2624,
      "uj": 2625,
      "ం\")": 2626,
      "వర్": 2627,
      "▁ఈ": 2628,
      "▁భారత": 2629,
      "▁లో": 2630,
      "](<./Special:BookSources/978-1": 2631,
      "▁[F": 2632,
      "▁\"Special:BookSources/978-1": 2633,
      "ram": 2634,
      "▁cont": 2635,
      "▁तक": 2636,
      "త్రి": 2637,
      "india/": 2638,
      "ులు>": 2639,
      "▁([help": 2640,
      "▁World": 2641,
      "ongress": 2642,
      "▁Island": 2643,
      "▁errors": 2644,
      "right": 2645,
      "_अ": 2646,
      "ee": 2647,
      "च्": 2648,
      "वार": 2649,
      "स.": 2650,
      "▁आधार": 2651,
      ")|": 2652,
      "Singh": 2653,
      "ater": 2654,
      "eb": 2655,
      "with": 2656,
      "yn": 2657,
      "तर": 2658,
      "](<./F": 2659,
      "ley": 2660,
      "lad": 2661,
      "ेशिया": 2662,
      "▁countries": 2663,
      "नाग": 2664,
      "▁त्या": 2665,
      "▁Empire": 2666,
      "▁विश": 2667,
      "▁July": 2668,
      "म्मू": 2669,
      "330px-": 2670,
      "JPG": 2671,
      "_सा": 2672,
      "तंत्र": 2673,
      "ृष्ट": 2674,
      "▁वे": 2675,
      ".php": 2676,
      "हाय": 2677,
      "radition": 2678,
      "▁प्राचीन": 2679,
      ".html": 2680,
      "69": 2681,
      "_క": 2682,
      "_सं": 2683,
      "fn_": 2684,
      "ober": 2685,
      "त्या": 2686,
      "द्या": 2687,
      "म>": 2688,
      "తు": 2689,
      "పతి": 2690,
      "▁ని": 2691,
      "](<./उ": 2692,
      "▁\"उ": 2693,
      "▁\"భారతదేశం": 2694,
      "ed.": 2695,
      "్రి": 2696,
      "▁हवा": 2697,
      "▁असे": 2698,
      "ाता": 2699,
      "et:": 2700,
      "aman": 2701,
      "▁Sfn": 2702,
      "▁targ": 2703,
      "న్ని": 2704,
      "ర్వ": 2705,
      "ासून": 2706,
      "ले.": 2707,
      "▁काही": 2708,
      "▁New": 2709,
      "ులు](<./": 2710,
      "harat": 2711,
      "ुरु": 2712,
      "ुरू": 2713,
      "మిళ": 2714,
      "▁not": 2715,
      "▁error:": 2716,
      "వంశ": 2717,
      "template_": 2718,
      "DwAAQBAJ&pg=PA": 2719,
      "▁संस्कृती": 2720,
      "_की_सूची": 2721,
      "_and_Sfn_": 2722,
      "▁target:": 2723,
      "template_error": 2724,
      "_and_Sfn_template_error": 2725,
      "\"](<https://": 2726,
      "_ब": 2727,
      "orest": 2728,
      "ert": 2729,
      "र्ना": 2730,
      "ikh": 2731,
      "\\)\")\n": 2732,
      "1994": 2733,
      "ी_भाषा>": 2734,
      "र्नाटक": 2735,
      "-t": 2736,
      "58": 2737,
      "61": 2738,
      "iff": 2739,
      "ution": 2740,
      "ओं": 2741,
      "ूच": 2742,
      "▁ओ": 2743,
      "▁[उ": 2744,
      "▁\"South": 2745,
      "▁par": 2746,
      "िक्क": 2747,
      "ations": 2748,
      "▁CITEREF": 2749,
      "iron": 2750,
      "▁उत्": 2751,
      "imes": 2752,
      "पुरी": 2753,
      "]](<./भारत#cite_note-FOOTNOTE": 2754,
      "nglish": 2755,
      "▁लि": 2756,
      "ummit>": 2757,
      "news/": 2758,
      "ledge": 2759,
      "eople": 2760,
      "▁([help](<./": 2761,
      "67": 2762,
      "CO": 2763,
      "क्": 2764,
      "दार": 2765,
      "दर्": 2766,
      "▁![](//upload.wikimedia.org/wikipedia/commons/thumb/": 2767,
      "1947": 2768,
      "▁दे": 2769,
      "118": 2770,
      "\")|\n": 2771,
      "05": 2772,
      "1,": 2773,
      "_K": 2774,
      "_మ": 2775,
      "_భాష": 2776,
      "a,": 2777,
      "jec": 2778,
      "दल": 2779,
      "वरी": 2780,
      "ద్ర": 2781,
      "ఫ్": 2782,
      "▁స్": 2783,
      "▁స్థ": 2784,
      "▁[స": 2785,
      "▁\"J": 2786,
      "▁\"అ": 2787,
      "ally": 2788,
      "▁किया": 2789,
      "cience": 2790,
      "entre": 2791,
      "▁प्रकार": 2792,
      "న్నాయ": 2793,
      "▁नृत्य": 2794,
      "त्रि": 2795,
      "▁have": 2796,
      "▁En": 2797,
      "rits": 2798,
      "▁government": 2799,
      "ocial": 2800,
      "ियों": 2801,
      "▁రై": 2802,
      "_Indian_": 2803,
      "वर्ग": 2804,
      "Stein1998": 2805,
      "హిందూ": 2806,
      "गुजरात": 2807,
      "▁errors\"))\n": 2808,
      "Singh2009": 2809,
      "5/": 2810,
      "d/": 2811,
      "ंदी": 2812,
      "ग्": 2813,
      "मेर": 2814,
      "ाचे": 2815,
      "▁econom": 2816,
      "क्षा": 2817,
      "संख्या": 2818,
      "Dyson": 2819,
      "ote": 2820,
      "oth": 2821,
      "viron": 2822,
      "y>": 2823,
      "](<./J": 2824,
      "▁[J": 2825,
      "thno": 2826,
      "tig": 2827,
      "▁ag": 2828,
      "▁into": 2829,
      "▁system": 2830,
      "note-1": 2831,
      "aper": 2832,
      "ritan": 2833,
      "ummit\")\n": 2834,
      "also": 2835,
      "vironment": 2836,
      "9/": 2837,
      "_at": 2838,
      "_देश": 2839,
      "गा": 2840,
      "पे": 2841,
      "ince": 2842,
      "▁अर्थ": 2843,
      "ंगीत": 2844,
      "emple": 2845,
      "iddle": 2846,
      ",000": 2847,
      "1/": 2848,
      "6_": 2849,
      "_H": 2850,
      "gory": 2851,
      "लय": 2852,
      "श्र": 2853,
      "బా": 2854,
      "భూ": 2855,
      "య్య": 2856,
      "ర్య": 2857,
      "▁ల": 2858,
      "▁us": 2859,
      "▁भा": 2860,
      "▁comp": 2861,
      "](<./క": 2862,
      "▁\"ప": 2863,
      "▁\"స": 2864,
      "tiv": 2865,
      "cient": 2866,
      "▁their": 2867,
      "▁मंदिर": 2868,
      "▁(201": 2869,
      "▁sfn": 2870,
      "नाथ": 2871,
      "▁Pradesh": 2872,
      "▁[↑](<./భారతదేశం#cite_ref-": 2873,
      "स्ला": 2874,
      "▁during": 2875,
      "ategory": 2876,
      "eptem": 2877,
      "त्तरा": 2878,
      "ress>": 2879,
      "-81": 2880,
      "త్త": 2881,
      "▁north": 2882,
      "▁ప్రదేశ్": 2883,
      "▁Oct": 2884,
      "ప్రదేశ్": 2885,
      "_Press>": 2886,
      "_pro": 2887,
      "▁खाना": 2888,
      "▁मुख्य": 2889,
      "](<./List_of_c": 2890,
      "engal": 2891,
      "▁నుండి": 2892,
      "eptember": 2893,
      "▁October": 2894,
      "/A": 2895,
      "99": 2896,
      "oy": 2897,
      "tr": 2898,
      "ओड": 2899,
      "च्च": 2900,
      "पाल": 2901,
      "ीस": 2902,
      "▁पद": 2903,
      "term": 2904,
      "▁[↑](<./भारत#cite_": 2905,
      "▁[↑](<./भारत#cite_ref": 2906,
      "athe": 2907,
      "ficial": 2908,
      "ip": 2909,
      "rd": 2910,
      "ura": 2911,
      "तील": 2912,
      "पती": 2913,
      "बसे": 2914,
      "ऱ्या": 2915,
      "ूळ": 2916,
      "▁ला": 2917,
      "inister": 2918,
      "ound": 2919,
      "▁Aug": 2920,
      "▁Archived": 2921,
      "▁first": 2922,
      "210": 2923,
      "ली.": 2924,
      "▁गया": 2925,
      "isher": 2926,
      "▁राज्यों": 2927,
      "▁Press\").": 2928,
      "argest": 2929,
      "outledge": 2930,
      "▁(PDF)": 2931,
      "industry": 2932,
      "व्यवस्था": 2933,
      "](<./List_of_countries": 2934,
      "▁August": 2935,
      "_f": 2936,
      "hen": 2937,
      "विक": 2938,
      "स>": 2939,
      "▁pla": 2940,
      "rim": 2941,
      "▁1.": 2942,
      "ांक": 2943,
      "मुख्य": 2944,
      "able": 2945,
      ".gov/": 2946,
      "fficial": 2947,
      "धर्म>": 2948,
      "च्छ": 2949,
      "5%": 2950,
      "Comb": 2951,
      "Rothermund": 2952,
      "_20": 2953,
      "jab": 2954,
      "ology": 2955,
      "ran": 2956,
      "tal": 2957,
      "शि": 2958,
      "ణి": 2959,
      "తమిళ": 2960,
      "మె": 2961,
      "మైన": 2962,
      "హార": 2963,
      "▁थ": 2964,
      "▁also": 2965,
      "▁[అ": 2966,
      "▁[ప": 2967,
      "▁\"ఇ": 2968,
      "▁\"బ": 2969,
      "▁\"భారత": 2970,
      "chno": 2971,
      "entral": 2972,
      "▁Sh": 2973,
      "▁class": 2974,
      "▁दिल्ली": 2975,
      "▁तर": 2976,
      "▁बन": 2977,
      "రాజ": 2978,
      "▁కాల": 2979,
      "▁Dec": 2980,
      "ayan": 2981,
      "▁2023": 2982,
      "▁మొ": 2983,
      "epublic": 2984,
      "నాగ": 2985,
      "త్తర": 2986,
      "▁అధిక": 2987,
      "ffair": 2988,
      "uddh": 2989,
      "ार्थ": 2990,
      "▁गणराज्य": 2991,
      "శ్మీ": 2992,
      "साँचा:": 2993,
      "మూస:": 2994,
      "Dyson2018": 2995,
      "Combined": 2996,
      "कल": 2997,
      "▁30": 2998,
      "▁टक": 2999,
      "▁लेख": 3000,
      "estern": 3001,
      "**[": 3002,
      "ural": 3003,
      ".jpg/330px-": 3004,
      ".svg/20px-": 3005,
      "ण्ड": 3006,
      "Kulke": 3007,
      "oor": 3008,
      "uis": 3009,
      "ule": 3010,
      "नि": 3011,
      "र्य": 3012,
      "सभा": 3013,
      "](<./ल": 3014,
      "](<./सं": 3015,
      "▁\"W": 3016,
      "▁\"ल": 3017,
      "▁\"सं": 3018,
      "ision": 3019,
      "▁part": 3020,
      "2000": 3021,
      "▁September": 3022,
      "▁world": 3023,
      "▁maint:": 3024,
      "line": 3025,
      "rog": 3026,
      "न्द्र": 3027,
      "ely": 3028,
      "संख्य": 3029,
      "▁[मूल": 3030,
      "▁June": 3031,
      "ose": 3032,
      "बाद": 3033,
      "▁पुरालेखित": 3034,
      "liament": 3035,
      "▁region": 3036,
      "▁युद्ध": 3037,
      "▁Commission": 3038,
      "▁पुरालेखित।": 3039,
      "CN": 3040,
      "_3": 3041,
      "डे": 3042,
      "मधील": 3043,
      "▁कार": 3044,
      "▁मिळ": 3045,
      "▁म्ह": 3046,
      "्याया": 3047,
      "▁13": 3048,
      "ांच्या": 3049,
      "▁नाम": 3050,
      "▁झाले": 3051,
      "author": 3052,
      "ैदिक": 3053,
      "▁म्हण": 3054,
      "75": 3055,
      "ban": 3056,
      "fric": 3057,
      "ne": 3058,
      "मे": 3059,
      "ुल": 3060,
      "ॉल": 3061,
      "చే": 3062,
      "ైనా": 3063,
      "▁శ": 3064,
      "](<./ఇ": 3065,
      "](<./బ": 3066,
      "](<./స": 3067,
      "▁[t": 3068,
      "▁[ఇ": 3069,
      "▁\"జ": 3070,
      "\"):": 3071,
      "▁सबसे": 3072,
      "lam": 3073,
      "etwe": 3074,
      "▁Act": 3075,
      "భారత_": 3076,
      "▁Chin": 3077,
      "లో](<./": 3078,
      "రిజ": 3079,
      "క్కు": 3080,
      "▁इंडिया": 3081,
      "ండ్": 3082,
      "ishing": 3083,
      "ortal": 3084,
      "िशा": 3085,
      "क्ति": 3086,
      "द्योग": 3087,
      "స్కృతి": 3088,
      "ंग्रेज़ी": 3089,
      "ritannic": 3090,
      "etween": 3091,
      "-40": 3092,
      "81": 3093,
      "86": 3094,
      "_पर": 3095,
      "know": 3096,
      "गोल": 3097,
      "दु": 3098,
      "▁कि": 3099,
      "asia": 3100,
      "िकी": 3101,
      "▁उत्तर": 3102,
      "-f": 3103,
      "/Flag_of_": 3104,
      "84": 3105,
      ":[": 3106,
      "ities": 3107,
      "ris": 3108,
      "s?action=edit&redlink=1>": 3109,
      "।[[": 3110,
      "▁ar": 3111,
      "](<./W": 3112,
      "ten": 3113,
      "one": 3114,
      "ones": 3115,
      "edic": 3116,
      "ool": 3117,
      "racy": 3118,
      "▁population": 3119,
      "ument": 3120,
      "adu": 3121,
      "amb": 3122,
      "here": 3123,
      "unjab": 3124,
      "▁form": 3125,
      "gency": 3126,
      "▁(PDF).": 3127,
      "umbai": 3128,
      "thnolog": 3129,
      "KulkeRothermund": 3130,
      "\".": 3131,
      "जय": 3132,
      "रत": 3133,
      "ीन": 3134,
      "▁[I": 3135,
      "▁[च": 3136,
      "rec": 3137,
      "190": 3138,
      "ेश्व": 3139,
      "▁जु": 3140,
      "▁24": 3141,
      "▁de": 3142,
      "state": 3143,
      "माज": 3144,
      ".jpg/60px-": 3145,
      "▁been": 3146,
      "▁विश्व": 3147,
      "ेश्वर": 3148,
      "12": 3149,
      "8](<./India#CITEREF": 3150,
      "ces": 3151,
      "ibrary": 3152,
      "oast": 3153,
      "ण्यात": 3154,
      "ం?action=edit&redlink=1>": 3155,
      "ఆసియా": 3156,
      "▁[జ": 3157,
      "▁[బ": 3158,
      "▁\"O": 3159,
      "ia>": 3160,
      "ारे": 3161,
      "omen": 3162,
      "ान>": 3163,
      "▁India:": 3164,
      "▁India\"),": 3165,
      "▁आक": 3166,
      "ingdom": 3167,
      "ातंत्र": 3168,
      "▁प्रजात": 3169,
      "▁పా": 3170,
      "b/b": 3171,
      "andhi": 3172,
      "resid": 3173,
      "▁Metcalf": 3174,
      "वाद": 3175,
      "ों_की_सूची": 3176,
      "▁వా": 3177,
      "ండు": 3178,
      "▁చూ": 3179,
      "▁साथ": 3180,
      "▁यादी": 3181,
      "త్వ": 3182,
      "ప్రధాన": 3183,
      "▁राज्ये": 3184,
      "स्कृत": 3185,
      "▁exp": 3186,
      "articl": 3187,
      "udden": 3188,
      "...": 3189,
      "हिन्दी": 3190,
      "raven": 3191,
      "▁येथ": 3192,
      "िंधू": 3193,
      "▁subcontinent": 3194,
      "▁शिक्षण": 3195,
      "University_Press>": 3196,
      "Increase2": 3197,
      "▁हवामान": 3198,
      "▁टक्क": 3199,
      "▁प्रजाती": 3200,
      "c/c": 3201,
      "ंका": 3202,
      "ण>": 3203,
      "theast": 3204,
      "loc": 3205,
      "▁2016": 3206,
      "▁**[": 3207,
      "ीलंका": 3208,
      "%2F": 3209,
      "शिया>": 3210,
      "पूर्वी": 3211,
      "100": 3212,
      "CE": 3213,
      "_धर्म>": 3214,
      "hat": 3215,
      "ok": 3216,
      "oin": 3217,
      "▁'": 3218,
      "▁al": 3219,
      "▁था": 3220,
      "▁\"श्रेणी:Harv": 3221,
      "\")[[": 3222,
      "ering": 3223,
      "ash": 3224,
      "▁Ass": 3225,
      "▁14": 3226,
      "▁most": 3227,
      "▁जा": 3228,
      "▁जिस": 3229,
      "iles/": 3230,
      "दीव": 3231,
      "ird": 3232,
      "▁2024": 3233,
      "▁2006": 3234,
      "▁संघ": 3235,
      ".jpg/120px-": 3236,
      "time": 3237,
      "-107": 3238,
      "_नदी>": 3239,
      "श्रेणी:Harv_and_Sfn_template_error": 3240,
      "embly": 3241,
      "▁([help](<./श्रेणी:Harv_and_Sfn_template_error": 3242,
      "chnology": 3243,
      "▁([help](<./श्रेणी:Harv_and_Sfn_template_errors?action=edit&redlink=1>": 3244,
      "fl": 3245,
      "टा": 3246,
      "िहार": 3247,
      "ोह": 3248,
      "▁state": 3249,
      ".org/10.": 3250,
      "▁गे": 3251,
      "doi.org/10.": 3252,
      "3-0>)": 3253,
      "National_": 3254,
      "_సా": 3255,
      "pt": 3256,
      "tra": 3257,
      "ంప": 3258,
      "గణ": 3259,
      "దిన": 3260,
      "నై": 3261,
      "రీ": 3262,
      "ోర్": 3263,
      "▁im": 3264,
      "▁\"చ": 3265,
      "▁Ch": 3266,
      "▁but": 3267,
      "▁between": 3268,
      "▁more": 3269,
      "▁Population": 3270,
      "▁క్రీ": 3271,
      "క్‌": 3272,
      "ion_": 3273,
      "నికి": 3274,
      "साय": 3275,
      "ల్ల": 3276,
      "ంగీ": 3277,
      "నాభా": 3278,
      "▁Jan": 3279,
      "harma": 3280,
      "జాబి": 3281,
      "Harle": 3282,
      "ligi": 3283,
      "▁है।\n": 3284,
      "▁తే": 3285,
      "तमिल": 3286,
      "శాస్త్ర": 3287,
      "▁భాష\")\n": 3288,
      "ृष्ठ": 3289,
      "బెంగ": 3290,
      "_చరిత్ర>": 3291,
      "▁ऑफ": 3292,
      "ujar": 3293,
      "jection": 3294,
      "ategory:": 3295,
      "thnologue": 3296,
      "జాబితా": 3297,
      "/P": 3298,
      "_O": 3299,
      "ges": 3300,
      "ळ>": 3301,
      "ाचा": 3302,
      "िने": 3303,
      "ेड": 3304,
      "▁[ल": 3305,
      "▁\"I": 3306,
      "्यट": 3307,
      "▁हिम": 3308,
      "**\n": 3309,
      "▁तसे": 3310,
      "▁बंगाल": 3311,
      "str": 3312,
      "▁संविधान": 3313,
      "ताज": 3314,
      "हिम": 3315,
      "▁यां": 3316,
      "▁होती": 3317,
      "▁निर्": 3318,
      "▁साहित्य": 3319,
      "हाय्य": 3320,
      "श्रीलंका": 3321,
      "▁तसेच": 3322,
      "32": 3323,
      "44": 3324,
      "mu": 3325,
      "pu": 3326,
      "rans": 3327,
      "गत": 3328,
      "गढ़": 3329,
      "ल>": 3330,
      "ूह": 3331,
      "▁Y": 3332,
      "▁comm": 3333,
      "▁![": 3334,
      "▁सु": 3335,
      "▁(20": 3336,
      "▁व्य": 3337,
      "2001": 3338,
      "amp": 3339,
      "▁bec": 3340,
      "▁music": 3341,
      "स्थ": 3342,
      "▁ब्रिटिश": 3343,
      "Infor": 3344,
      "in_India>": 3345,
      "-80": 3346,
      "▁यह": 3347,
      "पूर्": 3348,
      "ourt": 3349,
      "cyc": 3350,
      "_के_राज्य": 3351,
      "irect": 3352,
      "South_Asia>": 3353,
      "▁century": 3354,
      "ganisation": 3355,
      "athematic": 3356,
      "-C": 3357,
      "\\-": 3358,
      "ोर्": 3359,
      "▁ई": 3360,
      "icon": 3361,
      "ade": 3362,
      "▁Cambridge": 3363,
      "ovement": 3364,
      "olper": 3365,
      "▁\\(identifier\\)\"):[": 3366,
      "ंत्री": 3367,
      "र्थिक": 3368,
      "ंग्ल": 3369,
      "olpert": 3370,
      "-re": 3371,
      "2-2": 3372,
      "7>)": 3373,
      "New": 3374,
      "[![": 3375,
      "_W": 3376,
      "fic": 3377,
      "rin": 3378,
      "rish": 3379,
      "s.[[": 3380,
      "स\")": 3381,
      "చల్": 3382,
      "యన్": 3383,
      "షు": 3384,
      "ీ>": 3385,
      "ూర్": 3386,
      "▁es": 3387,
      "▁all": 3388,
      "](<./జ": 3389,
      "](<./ప": 3390,
      "](<./భారతీయ": 3391,
      "▁[భారతీయ": 3392,
      "▁[Indian": 3393,
      "▁\"ह": 3394,
      "an>": 3395,
      "alley": 3396,
      "▁after": 3397,
      "▁मा": 3398,
      "ార్ట": 3399,
      "▁हिन्": 3400,
      "lob": 3401,
      "ాలయ": 3402,
      "anglad": 3403,
      "ill": 3404,
      "▁dance": 3405,
      "oll": 3406,
      "క్క": 3407,
      "▁వ్యవస్థ": 3408,
      "aksh": 3409,
      "▁సి": 3410,
      "apit": 3411,
      "▁ము": 3412,
      "ండో": 3413,
      "▁National": 3414,
      "ముంబ": 3415,
      "avid": 3416,
      "సిన": 3417,
      "ినల్": 3418,
      "ద్ద": 3419,
      "▁ఉన్న": 3420,
      "▁ఉన్నాయ": 3421,
      "-19-8": 3422,
      "▁खास": 3423,
      "rick": 3424,
      "शास्त्र": 3425,
      "పాకిస్తాన్": 3426,
      "orthographic": 3427,
      "▁ఒక": 3428,
      "▁ఒరిజ": 3429,
      "ompany": 3430,
      "दर्भ": 3431,
      "_భాష>": 3432,
      "_projection": 3433,
      "angladesh": 3434,
      "orthographic_projection": 3435,
      "▁ఒరిజినల్": 3436,
      "76": 3437,
      "79": 3438,
      "iri": 3439,
      "ph": 3440,
      "yy": 3441,
      "ख्": 3442,
      "५०": 3443,
      "▁[प": 3444,
      "onte": 3445,
      "lem": 3446,
      "▁आज": 3447,
      "▁Constitution": 3448,
      "न्द": 3449,
      "चेरी": 3450,
      "प्रधान": 3451,
      "हिमा": 3452,
      "▁national": 3453,
      "%E0%A4%A": 3454,
      "म्ब": 3455,
      "Island": 3456,
      "_या": 3457,
      "_और": 3458,
      "ft": 3459,
      "एं": 3460,
      "ूटी": 3461,
      "▁li": 3462,
      "](<./ह": 3463,
      "▁[3": 3464,
      "arh": 3465,
      "▁ab": 3466,
      "▁पठ": 3467,
      "umber": 3468,
      "ussia": 3469,
      "ace": 3470,
      "▁Census": 3471,
      "ular": 3472,
      "▁East": 3473,
      "s_C": 3474,
      "s_and": 3475,
      "▁1950": 3476,
      "पाद": 3477,
      "▁Press.": 3478,
      "म्राज्य>": 3479,
      "%E0%A4%BE": 3480,
      "▁2014.\n": 3481,
      "actbook": 3482,
      "ttar": 3483,
      "▁years": 3484,
      "_साम्राज्य>": 3485,
      "वर्ग:CS1": 3486,
      "ओडिशा": 3487,
      "संख्ये": 3488,
      "▁टक्के": 3489,
      ".n": 3490,
      "तां": 3491,
      "नगर": 3492,
      "ीमा": 3493,
      "-06": 3494,
      "▁2.": 3495,
      "rop": 3496,
      "ंडोन": 3497,
      "तिश": 3498,
      "ंध्र": 3499,
      "हासा": 3500,
      "विश्व": 3501,
      "त्रिपुरा": 3502,
      "ंडोनेशिया": 3503,
      "%7": 3504,
      "/articl": 3505,
      "121": 3506,
      "72": 3507,
      "73": 3508,
      "ID": 3509,
      "Map": 3510,
      "_h": 3511,
      "_India>": 3512,
      "cc": 3513,
      "div": 3514,
      "iz": 3515,
      "s-": 3516,
      "ven": 3517,
      "ya": 3518,
      "ंद्र": 3519,
      "गढ": 3520,
      "तो": 3521,
      "फ़": 3522,
      "मह": 3523,
      "सि": 3524,
      "జ్": 3525,
      "వరి": 3526,
      "శ్చ": 3527,
      "ిన్న": 3528,
      "ెల": 3529,
      "▁-": 3530,
      "](<./विशेष:पुस्तक": 3531,
      "▁[[": 3532,
      "▁[v": 3533,
      "▁[భారత": 3534,
      "▁\"భారతదేశ": 3535,
      "▁\"विशेष:पुस्तक": 3536,
      "encies": 3537,
      "▁स्रोत/978": 3538,
      "్రె": 3539,
      "ారం": 3540,
      "rahm": 3541,
      "▁Congress": 3542,
      "▁दि": 3543,
      "▁tw": 3544,
      "लाई": 3545,
      "▁29": 3546,
      "▁May": 3547,
      "olic": 3548,
      "ాలు\")\n": 3549,
      "▁Development": 3550,
      "నిస్తాన్": 3551,
      "▁_The": 3552,
      "▁English": 3553,
      "▁2020": 3554,
      "▁మధ్య": 3555,
      "]](<./भारत#cite_note-1": 3556,
      "ustral": 3557,
      "](<./భారతదేశంలో": 3558,
      "▁Asia\")\n": 3559,
      "ajor": 3560,
      "స్థాన్": 3561,
      "_के_आ": 3562,
      "peration": 3563,
      "_स्रोत/978": 3564,
      "▁2011.\n": 3565,
      "clud": 3566,
      "దీ:": 3567,
      "▁పేజీ": 3568,
      "ंग्ला": 3569,
      "ildlife": 3570,
      "మ్మూ": 3571,
      "uropean": 3572,
      "▁\"భారతదేశంలో": 3573,
      "▁December": 3574,
      "▁చూసిన": 3575,
      "▁January": 3576,
      "▁తేదీ:": 3577,
      "हिमालय": 3578,
      "శ్చి": 3579,
      "](<./विशेष:पुस्तक_स्रोत/978": 3580,
      "▁పేజీని": 3581,
      "-21": 3582,
      "UCN": 3583,
      "_उ": 3584,
      "ned": 3585,
      "tre": 3586,
      "न_": 3587,
      "हरी": 3588,
      "४७": 3589,
      "ched": 3590,
      "▁व्या": 3591,
      "▁प्रत्य": 3592,
      "▁जो": 3593,
      "िया>": 3594,
      "ilg": 3595,
      "ovember": 3596,
      "▁प्रदेश\")\n": 3597,
      "logo": 3598,
      "▁[2](<./भारत#cite_ref-": 3599,
      "▁[1](<./भारत#cite_ref-": 3600,
      ".fr": 3601,
      ".JPG": 3602,
      "0.": 3603,
      "1>)": 3604,
      "4-0>)": 3605,
      "89": 3606,
      "NC": 3607,
      "_ए": 3608,
      "e/": 3609,
      "oon": 3610,
      "son": 3611,
      "डो": 3612,
      "ोड़": 3613,
      "▁art": 3614,
      "](<./The": 3615,
      "](<./बा": 3616,
      "▁[e": 3617,
      "▁[_A": 3618,
      "▁\"बा": 3619,
      "iation": 3620,
      "ofindia": 3621,
      "isions": 3622,
      "rac": 3623,
      "▁states": 3624,
      "istor": 3625,
      "_of_the": 3626,
      "ंगला": 3627,
      "ियाँ": 3628,
      "index": 3629,
      "▁है,": 3630,
      "▁election": 3631,
      "▁tex": 3632,
      "▁[2](<./India#cite_ref-FOOTNOTE": 3633,
      "▁[1](<./India#cite_ref-FOOTNOTE": 3634,
      "obb": 3635,
      "▁बाद": 3636,
      "times.com/": 3637,
      "censusindia.gov.in/": 3638,
      "ूचना": 3639,
      "ritannica": 3640,
      ".स.": 3641,
      "wal": 3642,
      "ंती": 3643,
      "जास": 3644,
      "ण्या": 3645,
      "रो": 3646,
      "वली": 3647,
      "िझ": 3648,
      "▁३": 3649,
      "▁up": 3650,
      "](<./प": 3651,
      "▁\"प": 3652,
      "▁केंद्र": 3653,
      "itz": 3654,
      "▁spe": 3655,
      "](<https://doi.org/10.": 3656,
      "▁tradition": 3657,
      "▁केले": 3658,
      "▁2012": 3659,
      "▁आहे.\n": 3660,
      "▁आहे.[[": 3661,
      "▁2009": 3662,
      "त्ताक": 3663,
      "▁रूप": 3664,
      "ogni": 3665,
      "्यांची": 3666,
      "ालीन": 3667,
      "णाचल": 3668,
      "▁नाव": 3669,
      "▁झाला": 3670,
      "▁मोठ": 3671,
      "देव": 3672,
      "रुणाचल": 3673,
      "्यानमार": 3674,
      "ातंत्र्य": 3675,
      "जासत्ताक": 3676,
      ".as": 3677,
      "3/": 3678,
      "500": 3679,
      "i>": 3680,
      "pur": 3681,
      "rm": 3682,
      "खन": 3683,
      "छत्त": 3684,
      "కై": 3685,
      "శ్రీ": 3686,
      "షన్": 3687,
      "హ్": 3688,
      "ెలు": 3689,
      "▁res": 3690,
      "](<./అ": 3691,
      "▁[s": 3692,
      "▁[Metcalf": 3693,
      "ann": 3694,
      "arliament": 3695,
      "ised": 3696,
      "▁सर्": 3697,
      "ased": 3698,
      "ान\")": 3699,
      "ानुसार": 3700,
      "1950": 3701,
      "ration": 3702,
      "▁अप": 3703,
      "agar": 3704,
      "▁పరి": 3705,
      "▁con": 3706,
      "▁जय": 3707,
      "▁22": 3708,
      "ాలు\n": 3709,
      "రియా": 3710,
      "विष": 3711,
      "▁మార్": 3712,
      "imalay": 3713,
      "▁Oxford": 3714,
      "ప్రపంచ": 3715,
      "▁[Stein": 3716,
      "▁स्थ": 3717,
      "గాంధ": 3718,
      "%2C_": 3719,
      "धार_पर": 3720,
      "▁సంస్కృతి": 3721,
      "దీవ": 3722,
      "olitical": 3723,
      "▁రాజవంశ": 3724,
      "▁territories": 3725,
      "rofile": 3726,
      "resident": 3727,
      "▁2006](<./India#CITEREF": 3728,
      "िनेमा": 3729,
      "ార్టీ": 3730,
      "_के_आधार_पर": 3731,
      "छत्तीस": 3732,
      "▁రాజవంశం": 3733,
      "_के_आधार_पर_भारत": 3734,
      "8-0>)": 3735,
      "has": 3736,
      "मर": 3737,
      "▁ci": 3738,
      "▁ro": 3739,
      "▁[O": 3740,
      "ict": 3741,
      "▁India.": 3742,
      "▁Schwartzberg": 3743,
      "क्षद्वीप": 3744,
      "1997": 3745,
      "](//upload.wikimedia.org/wikipedia/commons/thumb/b/b": 3746,
      ".gov.in/": 3747,
      "▁नदी\")": 3748,
      "▁[↑](<./भारत#cite_ref-1": 3749,
      "-w": 3750,
      "-le": 3751,
      ".india": 3752,
      "/S": 3753,
      "Fisher": 3754,
      "Pakistan": 3755,
      "i,": 3756,
      "mong": 3757,
      "oci": 3758,
      "sp": 3759,
      "ton": 3760,
      "▁ले": 3761,
      "▁ev": 3762,
      "▁over": 3763,
      "▁[m": 3764,
      "2023": 3765,
      "arn": 3766,
      "▁official": 3767,
      "oun": 3768,
      "ough": 3769,
      "▁sup": 3770,
      "िकोब": 3771,
      "▁द्वीप": 3772,
      "emoc": 3773,
      "andard": 3774,
      "▁27": 3775,
      "▁न्याया": 3776,
      "▁March": 3777,
      "▁BCE": 3778,
      "▁had": 3779,
      "ake": 3780,
      "akh": 3781,
      "▁end": 3782,
      "▁Hindi": 3783,
      "eport": 3784,
      "▁group": 3785,
      "ughal": 3786,
      "▁language\")\n": 3787,
      "▁[2](<./India#cite_ref-": 3788,
      "▁[1](<./India#cite_ref-": 3789,
      "mbol": 3790,
      "▁2010](<./India#CITEREF": 3791,
      ".svg.png)](<./चित्र:": 3792,
      "ed.).": 3793,
      "-to-": 3794,
      "](<./List_of_countries_by": 3795,
      "▁पुरालेखित।.": 3796,
      "▁जुलाई": 3797,
      "censusindia.gov.in/2011": 3798,
      "_के_आधार_पर_भारत_के_राज्य": 3799,
      "Fisher2018": 3800,
      "िकोबार": 3801,
      "3_": 3802,
      "En": 3803,
      "_un": 3804,
      "had": 3805,
      "क्र": 3806,
      "धु": 3807,
      "ाम": 3808,
      "०१": 3809,
      "▁[doi": 3810,
      "ins": 3811,
      "▁पर्व": 3812,
      "▁हि": 3813,
      "▁grow": 3814,
      "▁For": 3815,
      "_Temple": 3816,
      "▁[Dikshit": 3817,
      "▁\"Doi": 3818,
      "](<./Doi": 3819,
      "ervation": 3820,
      "वंट": 3821,
      "▁\\(identifier\\)\"):[10.": 3822,
      "▁[doi](<./Doi": 3823,
      "-B": 3824,
      "1_": 3825,
      "5–": 3826,
      "BC": 3827,
      "Uttar": 3828,
      "_వ": 3829,
      "a\")": 3830,
      "if": 3831,
      "आई": 3832,
      "खा": 3833,
      "झार": 3834,
      "तन": 3835,
      "दि": 3836,
      "न](<./": 3837,
      "ळ\")": 3838,
      "ం\"),": 3839,
      "ంత్రి": 3840,
      "ఆఫ్": 3841,
      "కత": 3842,
      "క్య": 3843,
      "దాయ": 3844,
      "రే": 3845,
      "లంక": 3846,
      "వీ": 3847,
      "షి": 3848,
      "సు": 3849,
      "▁ఏ": 3850,
      "▁he": 3851,
      "](<./O": 3852,
      "](<./V": 3853,
      "](<./చ": 3854,
      "](<./सा": 3855,
      "](<./पंजाब": 3856,
      "▁[చ": 3857,
      "▁[South": 3858,
      "▁\"V": 3859,
      "▁\"सा": 3860,
      "▁\"पंजाब": 3861,
      "religion": 3862,
      "ारिक": 3863,
      "eds.": 3864,
      "▁किल्": 3865,
      "▁मध्ये": 3866,
      "▁आहार": 3867,
      "](<./भारत#": 3868,
      "-15": 3869,
      "come": 3870,
      "atar": 3871,
      "స్సా": 3872,
      "▁పార్టీ": 3873,
      "న్‌": 3874,
      "ांचा": 3875,
      "▁dec": 3876,
      "▁Talbot": 3877,
      "olk": 3878,
      "▁2013": 3879,
      "▁వచ్చ": 3880,
      "साठी": 3881,
      "संदर्भ": 3882,
      "नेपा": 3883,
      "▁इतर": 3884,
      "ముద్ర": 3885,
      "abad": 3886,
      "సింధ": 3887,
      "▁\"मध्य": 3888,
      "▁होते.": 3889,
      "सेना": 3890,
      "▁[↑](<./भारत#cite_ref-FOOTNOTE": 3891,
      "▁\\(India": 3892,
      "▁देशों": 3893,
      "rade": 3894,
      "्यांच्या": 3895,
      "▁It": 3896,
      "िवस": 3897,
      "▁झाली": 3898,
      "నేపాల": 3899,
      "▁పేరు": 3900,
      "mpire>": 3901,
      "ector": 3902,
      "_का_": 3903,
      "ंग्रजी": 3904,
      "▁చెయ్య": 3905,
      "usiness": 3906,
      "▁కూడా": 3907,
      "▁होता.": 3908,
      "िक्कीम": 3909,
      "▁अर्थव्यवस्था": 3910,
      "ion_territ": 3911,
      "ంగీతం": 3912,
      "▁became": 3913,
      "ముంబై": 3914,
      "हिमाचल": 3915,
      "संख्येनुसार": 3916,
      "▁two": 3917,
      "olicy": 3918,
      "శ్చిమ": 3919,
      "▁మార్గ": 3920,
      "▁చెయ్యబడ": 3921,
      ".P": 3922,
      "7_": 3923,
      "Taj": 3924,
      "zed": 3925,
      "द्व": 3926,
      "ोष": 3927,
      "▁पक्ष": 3928,
      "▁मूल": 3929,
      "र्दू": 3930,
      "▁प्रमाण": 3931,
      "urre": 3932,
      "्षिक": 3933,
      "िया\")": 3934,
      "ांधी": 3935,
      "ासा": 3936,
      "e_M": 3937,
      "▁प्रदेश\")": 3938,
      "▁War": 3939,
      "▁period": 3940,
      "▁विकास": 3941,
      ".php?": 3942,
      "हासागर": 3943,
      ".|": 3944,
      "4–": 3945,
      "4-7": 3946,
      "Hindi": 3947,
      "IM": 3948,
      "az": 3949,
      "ehr": 3950,
      "han": 3951,
      "pic": 3952,
      "tle": 3953,
      "yan": 3954,
      "टि": 3955,
      "फ्र": 3956,
      "र>": 3957,
      "लि": 3958,
      "लाल": 3959,
      "▁४": 3960,
      "▁en": 3961,
      "▁emp": 3962,
      "▁time": 3963,
      "](<./व": 3964,
      "▁\"व": 3965,
      "tel": 3966,
      "teen": 3967,
      "inor": 3968,
      "onwe": 3969,
      "read": 3970,
      "India\\)>": 3971,
      "edi": 3972,
      "off": 3973,
      "omin": 3974,
      "▁pri": 3975,
      "▁includ": 3976,
      "ivil": 3977,
      "umar": 3978,
      "ालदीव": 3979,
      "ata_": 3980,
      "▁war": 3981,
      "▁caste": 3982,
      "illion": 3983,
      "▁तट": 3984,
      "▁Times": 3985,
      "▁Re": 3986,
      "▁Reg": 3987,
      "▁2017": 3988,
      ".org/wiki/": 3989,
      "वाधिक": 3990,
      "-2>": 3991,
      "▁2025": 3992,
      "▁2022": 3993,
      "▁general": 3994,
      "▁[\"C": 3995,
      "▁[\"India": 3996,
      "काश": 3997,
      "▁एवं": 3998,
      "Indus": 3999,
      "▁Union": 4000,
      "_summit>": 4001,
      "▁\"Economy": 4002,
      "](<./Economy": 4003,
      "▁धर्म\")": 4004,
      "usines": 4005,
      "AsherTalbot2008": 4006,
      "ों_की_सूची>": 4007,
      "ujarat": 4008,
      "▁[e](<./": 4009,
      ".indiatimes.com/": 4010,
      "onwealth": 4011,
      "):": 4012,
      "-India": 4013,
      "-of": 4014,
      "_n": 4015,
      "c=": 4016,
      "एस": 4017,
      "जे": 4018,
      "पात": 4019,
      "रक्ष": 4020,
      "ोच्च": 4021,
      "](<./I": 4022,
      "▁समुद्र": 4023,
      "▁मार": 4024,
      "र्क": 4025,
      "econd": 4026,
      "ters": 4027,
      "1017": 4028,
      "▁history": 4029,
      "arch_": 4030,
      "▁उदा": 4031,
      "ल्प": 4032,
      "▁साम्राज्य\")": 4033,
      ",[[": 4034,
      ".b": 4035,
      "120": 4036,
      "1]](<./India#cite_note-FOOTNOTE": 4037,
      "8–": 4038,
      "II": 4039,
      "UN": 4040,
      "a.": 4041,
      "cod": 4042,
      "ebr": 4043,
      "her": 4044,
      "lang": 4045,
      "nam": 4046,
      "rganisation": 4047,
      "ेघ": 4048,
      "గర": 4049,
      "టక": 4050,
      "టా": 4051,
      "దార": 4052,
      "రో": 4053,
      "సభ": 4054,
      "ీ](<./": 4055,
      "ెన": 4056,
      "ెద్ద": 4057,
      "▁j": 4058,
      "▁und": 4059,
      "▁[V": 4060,
      "▁[p": 4061,
      "▁[ह": 4062,
      "ndaman": 4063,
      "\");": 4064,
      "eral_": 4065,
      "oram": 4066,
      "arb": 4067,
      "tionary": 4068,
      "itary": 4069,
      "ouse": 4070,
      "राठी": 4071,
      "ical_": 4072,
      "chool": 4073,
      "rain": 4074,
      "▁incre": 4075,
      "▁summit\")\n": 4076,
      "loy": 4077,
      "▁अनुसार": 4078,
      "uslim": 4079,
      "_of_C": 4080,
      "▁प्रमुख": 4081,
      "▁పు": 4082,
      "▁me": 4083,
      "▁Plate": 4084,
      "ర్>": 4085,
      "లు>": 4086,
      "cean": 4087,
      "రాజ్య": 4088,
      "ight": 4089,
      "▁కేంద్రపాలిత": 4090,
      "▁BRICS": 4091,
      "-2>)": 4092,
      "1996": 4093,
      "ము>": 4094,
      "త్స": 4095,
      "▁రాజ్య": 4096,
      "Indones": 4097,
      "ocument": 4098,
      "_and_": 4099,
      "ow/": 4100,
      "ism>": 4101,
      "వాతంత్ర": 4102,
      "ड़ी": 4103,
      "eshow/": 4104,
      "▁దేశాల": 4105,
      "▁जाते": 4106,
      "లాదేశ్": 4107,
      "స్తు": 4108,
      "▁సామ్రాజ్యం](<./": 4109,
      "▁[Archived](<https://web.archive.org/web/201": 4110,
      "▁భాషలు": 4111,
      "ependencies": 4112,
      "ంగ్లాదేశ్": 4113,
      "olden": 4114,
      "▁produc": 4115,
      "ారు.": 4116,
      "_ప్రా": 4117,
      "International": 4118,
      "్రిటి": 4119,
      "ూర్పు": 4120,
      "కైవు": 4121,
      "▁[doi](<./Doi_\\(identifier\\)>": 4122,
      "ebruary": 4123,
      ".c": 4124,
      "io": 4125,
      "ual": 4126,
      "ळवंट": 4127,
      "वळ": 4128,
      "िपी": 4129,
      "ुव": 4130,
      "ैकी": 4131,
      "▁6.": 4132,
      "▁[पंजाब": 4133,
      "▁क्र": 4134,
      "▁सण": 4135,
      "▁पार": 4136,
      "र्जा": 4137,
      "▁आप": 4138,
      "-00": 4139,
      "ास्त": 4140,
      "▁निव": 4141,
      "rote": 4142,
      "साम": 4143,
      "हिंदी": 4144,
      "%E0%A5%": 4145,
      "▁पाहि": 4146,
      "वंश": 4147,
      "िंह": 4148,
      "4/41": 4149,
      "ांची_या": 4150,
      "_आणि": 4151,
      "iodiversity": 4152,
      "recogni": 4153,
      "▁येथील": 4154,
      "▁प्रत्येक": 4155,
      "िपीडिया": 4156,
      "55": 4157,
      "5-0>)": 4158,
      "Craven": 4159,
      "TR": 4160,
      "cat": 4161,
      "cture": 4162,
      "crip": 4163,
      "hang": 4164,
      "ria": 4165,
      "rar": 4166,
      "slam": 4167,
      "t-": 4168,
      "y,": 4169,
      "yayan": 4170,
      "एँ": 4171,
      "मंत्री": 4172,
      "ोज": 4173,
      "२६": 4174,
      "▁$": 4175,
      "▁:": 4176,
      "▁ref": 4177,
      "▁ind": 4178,
      "▁rate": 4179,
      "▁0.": 4180,
      "](<./च": 4181,
      "](<./भ": 4182,
      "](<./पाकिस्तान": 4183,
      "▁[पाकिस्तान": 4184,
      "▁\"च": 4185,
      "▁\"भ": 4186,
      "▁\"दक्षिण": 4187,
      "▁\"पाकिस्तान": 4188,
      "ar>": 4189,
      "ispu": 4190,
      "▁पश्चिम": 4191,
      "▁मध्य": 4192,
      "ooperation": 4193,
      "्तर": 4194,
      "etail": 4195,
      "▁11": 4196,
      "istrar": 4197,
      "▁Sanskrit": 4198,
      "onsoon": 4199,
      "▁modern": 4200,
      "▁23": 4201,
      "ष्ण": 4202,
      "ung": 4203,
      "al_P": 4204,
      "प्रा": 4205,
      "▁2004": 4206,
      "▁सेना": 4207,
      "▁one": 4208,
      "▁than": 4209,
      "ड़ा": 4210,
      "हरिया": 4211,
      "-19-9": 4212,
      "▁Press](<./": 4213,
      "म्बर": 4214,
      "ublishing": 4215,
      "onstituent": 4216,
      "itecture": 4217,
      "ainting": 4218,
      "िन्हे": 4219,
      "ाना>": 4220,
      "inistry_of_": 4221,
      "](<./भारत_में_": 4222,
      "atsyayan": 4223,
      "तेलंग": 4224,
      "▁Commissioner": 4225,
      "ricket": 4226,
      "झारखंड": 4227,
      "Craven1997": 4228,
      "88": 4229,
      "9-0>)": 4230,
      ";\n": 4231,
      "lor": 4232,
      "utic": 4233,
      "way": 4234,
      "ण\")": 4235,
      "ाट": 4236,
      "reat": 4237,
      "▁वन": 4238,
      "ikiv": 4239,
      "▁अरब": 4240,
      "ango": 4241,
      "▁British": 4242,
      ".wikipedia": 4243,
      "राष्ट्रीय_": 4244,
      "▁\"महाराष्ट्र": 4245,
      "](<./महाराष्ट्र": 4246,
      "▁K.": 4247,
      "दिल्ली>": 4248,
      "oyage": 4249,
      "पूर्ण": 4250,
      "ikivoyage": 4251,
      "](<./महाराष्ट्र>": 4252,
      "&s": 4253,
      "0/": 4254,
      "1-0>)": 4255,
      "6/": 4256,
      "6-0>)": 4257,
      "7-0>)": 4258,
      "C>).": 4259,
      "EO": 4260,
      "Main": 4261,
      "WEO": 4262,
      "_4": 4263,
      "_V": 4264,
      "ahar": 4265,
      "ek": 4266,
      "ealth": 4267,
      "ls": 4268,
      "minist": 4269,
      "por": 4270,
      "ras": 4271,
      "site": 4272,
      "tb": 4273,
      "vatsyayan": 4274,
      "वान": 4275,
      "ौर्य": 4276,
      "ం\")\n": 4277,
      "ంజా": 4278,
      "క్ర": 4279,
      "కేంద్రపాలిత": 4280,
      "గి": 4281,
      "టీ": 4282,
      "టాన్": 4283,
      "మంత్రి": 4284,
      "లను": 4285,
      "వె": 4286,
      "వరణ": 4287,
      "హదార": 4288,
      "ూచ": 4289,
      "▁భారతదేశ": 4290,
      "▁other": 4291,
      "](<./భారత_": 4292,
      "▁[India": 4293,
      "▁[19": 4294,
      "▁[बा": 4295,
      "tes": 4296,
      "errit": 4297,
      "omas": 4298,
      "▁app": 4299,
      "▁(eds.": 4300,
      "▁such": 4301,
      "inguis": 4302,
      "ammu": 4303,
      "▁St": 4304,
      "▁दिस": 4305,
      "▁21": 4306,
      "▁28": 4307,
      "ांध": 4308,
      "ross": 4309,
      "భారతదేశ_": 4310,
      "▁కు": 4311,
      "▁కొ": 4312,
      "▁వ్యా": 4313,
      "Spear": 4314,
      "ell": 4315,
      "1990": 4316,
      "▁మత": 4317,
      "▁మా": 4318,
      "▁మతము": 4319,
      "imf": 4320,
      "s_in_India>": 4321,
      "▁చే": 4322,
      "-8>": 4323,
      "తావరణ": 4324,
      "నాడు": 4325,
      "▁February": 4326,
      "osed": 4327,
      "▁एशिया": 4328,
      "ులు\")|": 4329,
      "otal": 4330,
      "▁ఉంది.": 4331,
      "_BRICS": 4332,
      "ాయి": 4333,
      "ణాసియా": 4334,
      "athak": 4335,
      "ultan": 4336,
      "गणना": 4337,
      "matics_C": 4338,
      "8/8": 4339,
      "▁[_The": 4340,
      "-lord": 4341,
      "తము>": 4342,
      "▁million": 4343,
      "▁2021.\n": 4344,
      "టెడ్": 4345,
      "▁later": 4346,
      "▁ఆర్కైవు": 4347,
      "▁రైలు": 4348,
      "భూటాన్": 4349,
      "▁northern": 4350,
      "ప్రదేశ్>": 4351,
      "▁लाग": 4352,
      "▁classical": 4353,
      "▁అధికార": 4354,
      "_సామ్రాజ్యం": 4355,
      "ताजमह": 4356,
      "Informatics_C": 4357,
      "lobal": 4358,
      "శ్రీలంక": 4359,
      "▁सर्वाधिक": 4360,
      "IMF": 4361,
      "ehru": 4362,
      "langoff": 4363,
      "వాతంత్ర్య": 4364,
      "](<./पाकिस्तान>": 4365,
      "vatsyayan-lord": 4366,
      "inguistic": 4367,
      "Informatics_Centre": 4368,
      "दरा": 4369,
      "बी": 4370,
      "ैल": 4371,
      "▁५": 4372,
      "▁ra": 4373,
      "▁40": 4374,
      "Indian_": 4375,
      "▁some": 4376,
      "entr": 4377,
      "-14": 4378,
      "](<https://en": 4379,
      "▁दो": 4380,
      "▁संसद": 4381,
      "धानी": 4382,
      "म्राट": 4383,
      "esearch": 4384,
      "_भारतीय_": 4385,
      "▁अन्य": 4386,
      "▁सूची\")\n": 4387,
      "तेलु": 4388,
      "ritsch": 4389,
      "_at_the": 4390,
      "recognized": 4391,
      "-h": 4392,
      "2]](<./India#cite_note-FOOTNOTE": 4393,
      "53": 4394,
      "Wolpert": 4395,
      "_v": 4396,
      "_University_Press>": 4397,
      "cent": 4398,
      "ij": 4399,
      "ning": 4400,
      "s\")": 4401,
      "ures": 4402,
      "ymbol": 4403,
      "पति": 4404,
      "पासून": 4405,
      "में": 4406,
      "वेश": 4407,
      "▁रा": 4408,
      "▁[_India": 4409,
      "ia\")\n": 4410,
      "anag": 4411,
      "ale": 4412,
      "alore": 4413,
      "्यता": 4414,
      "es>": 4415,
      "▁सैन": 4416,
      "them": 4417,
      "▁पड": 4418,
      "▁पह": 4419,
      "ould": 4420,
      "astern": 4421,
      "lect": 4422,
      "2017": 4423,
      "▁वैदिक": 4424,
      "▁south": 4425,
      "▁अज": 4426,
      "▁1,": 4427,
      "atak": 4428,
      "angalore": 4429,
      "ेंज": 4430,
      "▁who": 4431,
      "▁दोन": 4432,
      "ित्त": 4433,
      "▁mathematic": 4434,
      "rol": 4435,
      "olle": 4436,
      "▁2018](<./India#CITEREF": 4437,
      ".com/news/": 4438,
      "▁GDP": 4439,
      "▁1947": 4440,
      "_Sh": 4441,
      "form": 4442,
      "](<./मध्य": 4443,
      "ंदू": 4444,
      "ंदमान": 4445,
      "owland": 4446,
      "hai": 4447,
      "वेर": 4448,
      "▁असले": 4449,
      "▁असून": 4450,
      "▁प्राणी": 4451,
      "वरील": 4452,
      "गुप्त": 4453,
      "key": 4454,
      "▁जाता": 4455,
      "▁जातो": 4456,
      "india.gov.in": 4457,
      "ृत्य>": 4458,
      "a/a": 4459,
      "▁union": 4460,
      "▁काळात": 4461,
      "limate": 4462,
      "▁2019.": 4463,
      "▁शासन": 4464,
      "तंत्रता": 4465,
      "▁Act,": 4466,
      "Harle1994": 4467,
      "ligious": 4468,
      "हाय्य:CS1": 4469,
      "▁हिन्दी": 4470,
      "▁पठार": 4471,
      "](<./Economy_of_": 4472,
      "ेघालय": 4473,
      "▁\"पाकिस्तान\")": 4474,
      "erritory": 4475,
      "110": 4476,
      "129": 4477,
      "_घ": 4478,
      "o.": 4479,
      "pa": 4480,
      "work": 4481,
      "काल": 4482,
      "तिक": 4483,
      "प्": 4484,
      "।\n": 4485,
      "▁ऊ": 4486,
      "▁7.": 4487,
      "](<./दक्षिण": 4488,
      "▁[द": 4489,
      "▁संगीत": 4490,
      "▁पृष्ठ": 4491,
      "▁आर्थिक": 4492,
      "onservation": 4493,
      "acred": 4494,
      "नाव": 4495,
      "वादी": 4496,
      "al_in_": 4497,
      "▁4.": 4498,
      "पीठ": 4499,
      ".html>)": 4500,
      "-78": 4501,
      ".ए": 4502,
      "230": 4503,
      "3]](<./India#cite_note-FOOTNOTE": 4504,
      "7,": 4505,
      "Dikshit": 4506,
      "Qu": 4507,
      "St": 4508,
      "Schwartzberg": 4509,
      "Template:": 4510,
      "aus": 4511,
      "back": 4512,
      "files/": 4513,
      "ंट": 4514,
      "योग": 4515,
      "ल\")": 4516,
      "शोक": 4517,
      "ाय": 4518,
      "िज़": 4519,
      "ంశ": 4520,
      "ఆర్": 4521,
      "ఉత్తర": 4522,
      "ఒడి": 4523,
      "కీయ": 4524,
      "గం": 4525,
      "చు": 4526,
      "జరా": 4527,
      "తూర్పు": 4528,
      "భు": 4529,
      "మన్": 4530,
      "యి": 4531,
      "లస": 4532,
      "ీన": 4533,
      "ేక": 4534,
      "్>": 4535,
      "▁హ": 4536,
      "▁right": 4537,
      "▁industry": 4538,
      "▁జాబితా": 4539,
      "▁क्रम": 4540,
      "▁among": 4541,
      "▁महा": 4542,
      "asing": 4543,
      "▁people": 4544,
      "▁वै": 4545,
      "](<./भारत_की_": 4546,
      "los": 4547,
      "▁Affair": 4548,
      "▁పట్ట": 4549,
      "▁दर": 4550,
      "▁द्व": 4551,
      "नाम": 4552,
      "▁many": 4553,
      "urch": 4554,
      "▁जी": 4555,
      "▁Pakistan": 4556,
      "resent": 4557,
      "▁def": 4558,
      "ates": 4559,
      "ers,": 4560,
      "्वे": 4561,
      "indus": 4562,
      "विज्ञान": 4563,
      "నిక": 4564,
      "Ins": 4565,
      "▁Economic": 4566,
      "ంగ్రె": 4567,
      "▁long": 4568,
      "▁సభ": 4569,
      "▁ear": 4570,
      "Special:BookSources/978-81": 4571,
      "తాబ్": 4572,
      "odi": 4573,
      "0%E0%A": 4574,
      "ast_Asia": 4575,
      "णिपुरी": 4576,
      "▁ప్రపంచ": 4577,
      "utra": 4578,
      "▁प्रदेश](<./": 4579,
      "oreign": 4580,
      "▁ఆసియా": 4581,
      "_Delhi": 4582,
      "_मेला": 4583,
      "▁original](<https://": 4584,
      "▁original](<https://www.": 4585,
      "మ్రాజ్య": 4586,
      "▁_[The": 4587,
      "▁rule": 4588,
      "▁ఇతర": 4589,
      "గుజరా": 4590,
      "हाराष्ट्र](<./महाराष्ट्र>": 4591,
      "▁సామ్రాజ్యం|": 4592,
      "_%28orthographic_projection": 4593,
      "ependent": 4594,
      "MetcalfMetcalf2006>),": 4595,
      "ances": 4596,
      "Indo-A": 4597,
      "త్యేక": 4598,
      "రాష్ట్రపతి": 4599,
      "ప్ప": 4600,
      "▁2021.": 4601,
      "▁కాశ్మీ": 4602,
      "▁చెంద": 4603,
      "▁ఆర్ధిక": 4604,
      "ramme": 4605,
      "नागाल": 4606,
      "▁స్థాన": 4607,
      "▁Environment": 4608,
      "తమిళనాడు": 4609,
      "ప్రధానమంత్రి": 4610,
      "గణతంత్ర": 4611,
      "▁క్రీడ": 4612,
      "▁ఉన్నాయి.": 4613,
      "/articleshow/": 4614,
      ".aspx": 4615,
      "censusindia.gov.in/2011census": 4616,
      "ఆఫ్ఘ": 4617,
      "షియా": 4618,
      "న్‌ఫ": 4619,
      "हरियाणा": 4620,
      "▁(eds.).": 4621,
      "_సామ్రాజ్యం>": 4622,
      "DikshitSchwartzberg": 4623,
      "తాబ్ద": 4624,
      "_%28orthographic_projection%29": 4625,
      "DikshitSchwartzberg2023": 4626,
      "ier": 4627,
      "ध्या": 4628,
      "निक": 4629,
      "िर्": 4630,
      "ीया": 4631,
      "ुक": 4632,
      "ोप": 4633,
      "▁5.": 4634,
      "▁9.": 4635,
      "▁[व": 4636,
      "reed": 4637,
      "▁काल": 4638,
      "र्ष": 4639,
      "▁(इ": 4640,
      "▁since": 4641,
      "▁अग": 4642,
      "▁12": 4643,
      "**राष्ट्रीय": 4644,
      "▁जून": 4645,
      "ष्ठ": 4646,
      "▁R.": 4647,
      "▁शहर": 4648,
      "▁2003": 4649,
      "▁विष": 4650,
      "▁विद्य": 4651,
      "▁3.": 4652,
      "hib": 4653,
      "▁Language": 4654,
      ".svg>": 4655,
      "\"](<https://web.archive.org/web/20160": 4656,
      "क्षेत्रफ": 4657,
      "मेरिक": 4658,
      "▁उदाहर": 4659,
      "entral_": 4660,
      "\"](<https://books.google.com/books?id=": 4661,
      ".htm": 4662,
      "54": 4663,
      "545": 4664,
      "6]](<./India#cite_note-": 4665,
      "82": 4666,
      "96": 4667,
      "Ag": 4668,
      "Empire>": 4669,
      "Ludden": 4670,
      "Oj": 4671,
      "Re": 4672,
      "_प": 4673,
      "_re": 4674,
      "can": 4675,
      "eal": 4676,
      "election": 4677,
      "languages": 4678,
      "ner": 4679,
      "rg": 4680,
      "ron": 4681,
      "rid": 4682,
      "ring": 4683,
      "war": 4684,
      "yer": 4685,
      "दर": 4686,
      "यार": 4687,
      "स](<./": 4688,
      "़र": 4689,
      "िप": 4690,
      "१८": 4691,
      "▁land": 4692,
      "](<./द": 4693,
      "](<./हिन्": 4694,
      "▁[United": 4695,
      "▁\"द": 4696,
      "▁\"India": 4697,
      "▁\"United": 4698,
      "▁\"उत्तर": 4699,
      "ini": 4700,
      "than": 4701,
      "ery": 4702,
      "aldiv": 4703,
      "city": 4704,
      "▁(1,": 4705,
      "chi": 4706,
      "2012": 4707,
      "-11": 4708,
      "etary": 4709,
      "ालया": 4710,
      "▁All": 4711,
      "▁Arab": 4712,
      "▁Afric": 4713,
      "▁14.": 4714,
      "▁States": 4715,
      "▁CE": 4716,
      "ilk": 4717,
      "roduc": 4718,
      "▁Modern": 4719,
      "▁2015": 4720,
      "217": 4721,
      "▁Bank": 4722,
      "▁General": 4723,
      "epal": 4724,
      "▁Nations": 4725,
      "▁[\"The": 4726,
      "own": 4727,
      "वेली": 4728,
      "-19-5": 4729,
      "▁चु": 4730,
      "induism": 4731,
      "ineering": 4732,
      "arket": 4733,
      "olitics": 4734,
      "South_Asian_": 4735,
      "ependence": 4736,
      "क्षेत्र>": 4737,
      "hola": 4738,
      "hrist": 4739,
      "▁समय": 4740,
      "▁हुई": 4741,
      "ynast": 4742,
      "▁नृत्य\")": 4743,
      "▁economic": 4744,
      "त्तराखंड": 4745,
      "rogramme": 4746,
      "माजिक": 4747,
      "▁Assembly": 4748,
      "National_Informatics_Centre": 4749,
      "teenth": 4750,
      "▁under": 4751,
      "0%E0%A4%": 4752,
      "ast_Asia_S": 4753,
      "National_Informatics_Centre2005": 4754,
      "6>)\n": 4755,
      "94": 4756,
      "Emb": 4757,
      "_J": 4758,
      "dikshit": 4759,
      "eographic": 4760,
      "iti": 4761,
      "mrits": 4762,
      "nai": 4763,
      "pla": 4764,
      "इंडिया": 4765,
      "घल": 4766,
      "चिन्हे": 4767,
      "जिं": 4768,
      "रस्व": 4769,
      "लया": 4770,
      "िख": 4771,
      "▁8.": 4772,
      "▁[भ": 4773,
      "्यंत": 4774,
      "▁पान": 4775,
      "▁मस": 4776,
      "lat": 4777,
      "lated": 4778,
      "▁power": 4779,
      "▁अतिश": 4780,
      "upta": 4781,
      "ांमध्ये": 4782,
      "▁गु": 4783,
      "▁देश\")\n": 4784,
      "▁देशांची": 4785,
      "ंतप्रधान": 4786,
      "्यांमध्ये": 4787,
      "वेब": 4788,
      "_Mah": 4789,
      "▁असते.": 4790,
      "▁घे": 4791,
      "▁1994": 4792,
      "▁2007](<./भारत#": 4793,
      "▁\"जगातील": 4794,
      "](<./जगातील": 4795,
      "▁अनु": 4796,
      "भूत": 4797,
      "\")**\n": 4798,
      "गुजराती": 4799,
      "▁स्थानिक": 4800,
      "वार्षिक": 4801,
      "d/d": 4802,
      "_देशांची_या": 4803,
      "hennai": 4804,
      "विकिपीडिया": 4805,
      "▁मोठ्या": 4806,
      "▁किल्ला": 4807,
      "वेरूळ": 4808,
      "▁विद्यार्थ": 4809,
      "dikshit>),": 4810,
      "जिंठा": 4811,
      "रस्वती": 4812,
      "▁2007](<./भारत#dikshit>),": 4813,
      "विकिपीडिया:": 4814,
      ".IN": 4815,
      "/index": 4816,
      "0/0": 4817,
      "300": 4818,
      "9>)": 4819,
      "LA": 4820,
      "Pan": 4821,
      "_0": 4822,
      "_న": 4823,
      "_en": 4824,
      "data": 4825,
      "fgh": 4826,
      "get": 4827,
      "ix": 4828,
      "k:": 4829,
      "ker": 4830,
      "mi": 4831,
      "m.nic.in/": 4832,
      "ncl": 4833,
      "pib": 4834,
      "खाना>": 4835,
      "हू": 4836,
      "ोवा": 4837,
      "्ट": 4838,
      "ఉప": 4839,
      "గలు": 4840,
      "జె": 4841,
      "నాల": 4842,
      "లే": 4843,
      "ళు": 4844,
      "ౌద్ధ": 4845,
      "▁ठ": 4846,
      "▁డ": 4847,
      "▁50": 4848,
      "▁భా": 4849,
      "▁article": 4850,
      "](<./United": 4851,
      "▁\"Oxford": 4852,
      "inance": 4853,
      "tition": 4854,
      "tice": 4855,
      ">)]:": 4856,
      "▁*[[": 4857,
      "▁समा": 4858,
      "ictionary": 4859,
      "chang": 4860,
      "change": 4861,
      "▁social": 4862,
      "-111": 4863,
      "adi": 4864,
      "▁Ar": 4865,
      "▁दिया": 4866,
      "**జాతీయ": 4867,
      "▁minister": 4868,
      "▁major": 4869,
      "urton": 4870,
      "line_": 4871,
      "ility": 4872,
      "ర్చ": 4873,
      "overe": 4874,
      "▁नगर": 4875,
      "003": 4876,
      "▁बढ़": 4877,
      "olution": 4878,
      "▁total": 4879,
      "ాలు\")": 4880,
      "▁high": 4881,
      "tud": 4882,
      "Special:EditPage/": 4883,
      "प्रदेश": 4884,
      "▁संबंध": 4885,
      "▁Nadu": 4886,
      "-317": 4887,
      "-4>": 4888,
      "▁3,": 4889,
      "▁Fr": 4890,
      "▁number": 4891,
      "–సా.శ.18": 4892,
      "▁అత్య": 4893,
      "▁परंत": 4894,
      "▁ప్రభు": 4895,
      "्मार": 4896,
      "▁[Asher": 4897,
      "▁Kashmir": 4898,
      ".svg>)": 4899,
      "ప్రత్యేక": 4900,
      "_\\(India\\)>": 4901,
      "स्तान>": 4902,
      "स्तान\")": 4903,
      "▁ఆధ": 4904,
      "మాఖ్య": 4905,
      "వాణా": 4906,
      "ligence": 4907,
      "ugh": 4908,
      "ankar": 4909,
      "ంటి": 4910,
      "▁area": 4911,
      "▁దేశం": 4912,
      "▁\"National": 4913,
      "డ్డ": 4914,
      "దక్షిణాసియా": 4915,
      "▁గల": 4916,
      "▁భారతదేశంలో": 4917,
      "\")**|": 4918,
      "యునై": 4919,
      "PPP": 4920,
      "▁भूम": 4921,
      "ష్ణ": 4922,
      "_చరిత్ర?action=edit&redlink=1>": 4923,
      "▁हुआ": 4924,
      "meric": 4925,
      "▁territory": 4926,
      "national-": 4927,
      "▁రాష్ట్రాలు,": 4928,
      "▁लिए": 4929,
      "▁भाष": 4930,
      "rdu": 4931,
      "▁మొద": 4932,
      "uddhism": 4933,
      "గాంధీ": 4934,
      "▁రాజవంశం|": 4935,
      "arnatak": 4936,
      "▁చెయ్యబడింది.": 4937,
      "yanmar": 4938,
      "telligence": 4939,
      "WEO.IN": 4940,
      "ministra": 4941,
      "Spear1990": 4942,
      "IMFWEO.IN": 4943,
      "fghan": 4944,
      "nclm.nic.in/": 4945,
      "Special:EditPage/Template:": 4946,
      "▁परंतु": 4947,
      "యునైటెడ్": 4948,
      "\"[[": 4949,
      "=`": 4950,
      "March_": 4951,
      "`|": 4952,
      "vi": 4953,
      "ंची": 4954,
      "नत": 4955,
      "ल्य": 4956,
      "शन": 4957,
      "सभ": 4958,
      "ैस": 4959,
      "ोड": 4960,
      "aran": 4961,
      "▁मैद": 4962,
      "uss": 4963,
      "▁Science": 4964,
      "▁जल": 4965,
      "▁निकोबार": 4966,
      "▁des": 4967,
      "वाहर": 4968,
      "eld": 4969,
      "115": 4970,
      "ubcontinent": 4971,
      "▁([link": 4972,
      "ियन": 4973,
      "%E0%A4%9": 4974,
      "_maint:": 4975,
      ".html>).": 4976,
      "स्लाम": 4977,
      "स्लामी": 4978,
      "Taj_Mah": 4979,
      "al_in_March_": 4980,
      "वाहरलाल": 4981,
      "Taj_Mahal_in_March_": 4982,
      "Taj_Mahal_in_March_2004": 4983,
      "-30": 4984,
      "-Asia": 4985,
      "6–": 4986,
      "98": 4987,
      "Ne": 4988,
      "a-": 4989,
      "ared": 4990,
      "equ": 4991,
      "kar": 4992,
      "nal": 4993,
      "owe": 4994,
      "rup": 4995,
      "ua": 4996,
      "ved": 4997,
      "yle": 4998,
      "ंक": 4999,
      "वसाय": 5000,
      "हान": 5001,
      "ैक": 5002,
      "▁छ": 5003,
      "▁oc": 5004,
      "▁term": 5005,
      "▁[c": 5006,
      "▁[दक्षिण": 5007,
      "▁[Oxford": 5008,
      "▁\"य": 5009,
      "\")),": 5010,
      "oral": 5011,
      "arna": 5012,
      "alli": 5013,
      "▁कु": 5014,
      "ominal": 5015,
      "▁ac": 5016,
      "▁they": 5017,
      "▁there": 5018,
      "1970": 5019,
      "▁(2018": 5020,
      "▁India\").": 5021,
      "2016": 5022,
      "idata": 5023,
      "▁वार": 5024,
      "ikidata": 5025,
      "▁sh": 5026,
      "▁sp": 5027,
      "-0>": 5028,
      "lopedia": 5029,
      "etra": 5030,
      "▁Al": 5031,
      "atus": 5032,
      "▁SAARC": 5033,
      "▁found": 5034,
      "▁both": 5035,
      "▁trans": 5036,
      "urve": 5037,
      "ियां": 5038,
      ".[[3": 5039,
      "वाह": 5040,
      "india-g": 5041,
      "▁largest": 5042,
      "▁2026": 5043,
      ")](<./चित्र:": 5044,
      "epart": 5045,
      "▁[मध्य": 5046,
      "a_tig": 5047,
      "osp": 5048,
      "▁कोर": 5049,
      "-90": 5050,
      "▁१२": 5051,
      "ffice": 5052,
      "ड़े": 5053,
      "thera_tig": 5054,
      "Flag_of_India": 5055,
      "दादरा": 5056,
      "riculture": 5057,
      "-108": 5058,
      "hina": 5059,
      "](<./बंगाल": 5060,
      "904-7": 5061,
      "ublication": 5062,
      "ography": 5063,
      "करण": 5064,
      "rovision": 5065,
      "▁\"History": 5066,
      "माणु": 5067,
      "economic": 5068,
      "्रीका": 5069,
      "ohn": 5070,
      "-521-80": 5071,
      "gypt": 5072,
      "f/f": 5073,
      "▁used": 5074,
      "▁थी": 5075,
      "▁world's": 5076,
      "द्योगिकी": 5077,
      "KulkeRothermund2004": 5078,
      "cyclopedia": 5079,
      "ंग्लिश": 5080,
      "New_Delhi": 5081,
      "▁estim": 5082,
      "-19-88": 5083,
      "▁2006](<./India#CITEREFMetcalfMetcalf2006>),": 5084,
      ".PNG": 5085,
      "▁[पाकिस्तान](<./पाकिस्तान>": 5086,
      "▁दिसम्बर": 5087,
      "▁article:": 5088,
      "fghanistan": 5089,
      "▁occ": 5090,
      "epartment": 5091,
      "thera_tigris": 5092,
      "-521-80904-7": 5093,
      "-S": 5094,
      "-logo": 5095,
      "2>)\n": 5096,
      "Bharat": 5097,
      "_राज": 5098,
      "aut": 5099,
      "uthor": 5100,
      "गी": 5101,
      "गरा": 5102,
      "थक": 5103,
      "र\")": 5104,
      "शक": 5105,
      "ाप": 5106,
      "ी>": 5107,
      "▁—": 5108,
      "▁[उत्तर": 5109,
      "era": 5110,
      "▁केंद्रशासित": 5111,
      "राठा": 5112,
      "-16": 5113,
      "ेशन": 5114,
      "▁दी": 5115,
      "ंगे": 5116,
      "▁movement": 5117,
      "विद्या": 5118,
      "▁शै": 5119,
      "▁[महाराष्ट्र](<./महाराष्ट्र>": 5120,
      "स्थाप": 5121,
      "1967": 5122,
      "▁निर्म": 5123,
      "पेक्ष": 5124,
      "ilgrim": 5125,
      "प्पा": 5126,
      "Emblem": 5127,
      "mritsar": 5128,
      "▁([link](<./": 5129,
      ".in_": 5130,
      "/h": 5131,
      "2,": 5132,
      "219": 5133,
      "93": 5134,
      ":EditPage/": 5135,
      "Library": 5136,
      "Robb": 5137,
      "Sharma": 5138,
      "[G": 5139,
      "_38": 5140,
      "_Island": 5141,
      "ao": 5142,
      "bi": 5143,
      "bank": 5144,
      "cul": 5145,
      "country": 5146,
      "detail": 5147,
      "each": 5148,
      "i-": 5149,
      "ili": 5150,
      "ihar": 5151,
      "ple": 5152,
      "west": 5153,
      "ंचा": 5154,
      "कल्प": 5155,
      "पैकी": 5156,
      "मारत": 5157,
      "मृत": 5158,
      "य.ए": 5159,
      "ळख": 5160,
      "वारी": 5161,
      "ह्या": 5162,
      "ूण": 5163,
      "ैंड": 5164,
      "्स": 5165,
      "ం,": 5166,
      "కొ": 5167,
      "కాల": 5168,
      "కరణ": 5169,
      "ఖండ": 5170,
      "గం:": 5171,
      "టిక": 5172,
      "డే": 5173,
      "ద్య": 5174,
      "ద్రా": 5175,
      "ది.": 5176,
      "మార్": 5177,
      "మాలయ": 5178,
      "లలో": 5179,
      "లకు": 5180,
      "ళ్": 5181,
      "హు": 5182,
      "ానికి": 5183,
      "ాళు": 5184,
      "ీర్": 5185,
      "్](<./": 5186,
      "▁/": 5187,
      "▁em": 5188,
      "▁యు": 5189,
      "▁...": 5190,
      "▁శాస్త్ర": 5191,
      "](<./South": 5192,
      "](<./पश्चिम": 5193,
      "▁[ओ": 5194,
      "▁[భారతదేశ": 5195,
      "▁\"వి": 5196,
      "▁\"पश्चिम": 5197,
      "ian_": 5198,
      "ren": 5199,
      "2019": 5200,
      "ancy": 5201,
      "arl": 5202,
      "arge": 5203,
      "ality": 5204,
      "es,": 5205,
      "▁किन": 5206,
      "▁पार्": 5207,
      "▁पासून": 5208,
      "र्चा:": 5209,
      "▁India_](<https://books.google.com/books?id=": 5210,
      "lack": 5211,
      "chin": 5212,
      "iving": 5213,
      "ాలో": 5214,
      "ety": 5215,
      "rief": 5216,
      "ature": 5217,
      "స్వ": 5218,
      "స్లా": 5219,
      "▁प्रे": 5220,
      "▁పాల": 5221,
      "▁Company": 5222,
      "▁केली": 5223,
      "urban": 5224,
      "▁जगातील": 5225,
      "న్>": 5226,
      "న్\")": 5227,
      "▁Pers": 5228,
      "ISO": 5229,
      "emic": 5230,
      "▁नद": 5231,
      "00)\n": 5232,
      "▁diff": 5233,
      "▁बांध": 5234,
      "road": 5235,
      "▁Raj": 5236,
      "▁Mon": 5237,
      "▁Minor": 5238,
      "ulti": 5239,
      "दी_\\(": 5240,
      "▁కార": 5241,
      "▁కలి": 5242,
      "▁Bengal": 5243,
      "▁काम": 5244,
      "वाघ": 5245,
      "ोंड": 5246,
      "ాలు?action=edit&redlink=1>": 5247,
      "రిహ": 5248,
      "రికత": 5249,
      "క్నాల": 5250,
      "▁Delhi": 5251,
      "నిమా": 5252,
      "▁human": 5253,
      "स्तन": 5254,
      "▁गेट": 5255,
      "▁సంగీతం": 5256,
      "▁Gandhi": 5257,
      "नेय": 5258,
      "▁इमारत": 5259,
      "त्त्व": 5260,
      "23>)": 5261,
      "ము\")": 5262,
      "▁rep": 5263,
      "▁साम्राज": 5264,
      "▁सामाजिक": 5265,
      "ులు\"),": 5266,
      "–సా.శ.13": 5267,
      "▁అయ": 5268,
      "णिपूर": 5269,
      "▁ప్రధాన": 5270,
      "s/d": 5271,
      "ప్రదాయ": 5272,
      "ద్వీ": 5273,
      "▁ఉప": 5274,
      "▁करून": 5275,
      "▁began": 5276,
      "▁రె": 5277,
      "हीं": 5278,
      "_Development": 5279,
      "న్నడ": 5280,
      "ంటు": 5281,
      "▁extra": 5282,
      "ssam": 5283,
      "वरून": 5284,
      "▁దేశంలో": 5285,
      "round": 5286,
      "కాశ్మీ": 5287,
      "▁జనాభా": 5288,
      "aniz": 5289,
      "ingham": 5290,
      "ibet": 5291,
      "लोकसंख्येनुसार": 5292,
      "ducation": 5293,
      "ద్ధం": 5294,
      "ద్ధి": 5295,
      "ాల్దీవ": 5296,
      "చ్చే": 5297,
      "▁फ़र": 5298,
      "Oxford_University_Press>": 5299,
      "▁उपसा": 5300,
      "దక్షిణ_": 5301,
      "▁वर्षां": 5302,
      "▁add": 5303,
      "Stein2010>),": 5304,
      "▁सर्वांत": 5305,
      "▁కాంగ్రె": 5306,
      "టెక్నాల": 5307,
      "హిమాలయ": 5308,
      "వర్గం:": 5309,
      "▁Islands": 5310,
      "ृष्ट्या": 5311,
      "▁वेग": 5312,
      "▁ओळख": 5313,
      "▁उत्प": 5314,
      "▁उत्पाद": 5315,
      "_మతము>": 5316,
      "ग्नेय": 5317,
      "▁లే": 5318,
      "త్తరా": 5319,
      "▁खाना\")": 5320,
      "నాగరికత": 5321,
      ".svg/20px-Increase2": 5322,
      "క్కువ": 5323,
      "/Flag_of_India": 5324,
      "Increase2.svg/20px-Increase2": 5325,
      "క్‌సభ": 5326,
      "तांशी": 5327,
      "ंगलादेश": 5328,
      "ెలుగు": 5329,
      "](//upload.wikimedia.org/wikipedia/commons/thumb/b/b0/": 5330,
      "▁2010](<./India#CITEREFStein2010>),": 5331,
      "▁వచ్చింది.": 5332,
      "▁मार्च": 5333,
      "_ప్రాంత": 5334,
      "▁निवड": 5335,
      "4/41/Flag_of_India": 5336,
      "▁Press](<./Oxford_University_Press>": 5337,
      "ultanate": 5338,
      "▁द्वारा": 5339,
      "Indo-Ary": 5340,
      "rganiz": 5341,
      "ast_Asia_Summit>": 5342,
      "▁अतिशय": 5343,
      "](<./जगातील_देशांची_या": 5344,
      "विकिपीडिया:संदर्भ": 5345,
      "ర్చ:": 5346,
      "ప్రత్యేక:EditPage/": 5347,
      "Spear199024": 5348,
      "ह्याद्र": 5349,
      "ాళుక్య": 5350,
      "▁फ़रवरी": 5351,
      "టెక్నాలజీ": 5352,
      "వర్గం:Harv": 5353,
      "Increase2.svg/20px-Increase2.svg.png)": 5354,
      "](//upload.wikimedia.org/wikipedia/commons/thumb/b/b0/Increase2.svg/20px-Increase2.svg.png)": 5355,
      "](<./जगातील_देशांची_यादी_\\(": 5356,
      "ప్రత్యేక:EditPage/మూస:": 5357,
      "_-": 5358,
      "earch": 5359,
      "wic": 5360,
      "काता": 5361,
      "गू": 5362,
      "बेट": 5363,
      "यो": 5364,
      "](<./राजस्थान": 5365,
      "▁\"राजस्थान": 5366,
      "on_the": 5367,
      "India_G": 5368,
      "arsh": 5369,
      "र्ज": 5370,
      "▁western": 5371,
      "▁दु": 5372,
      "Southeast": 5373,
      "▁Rev": 5374,
      "चेन्न": 5375,
      "▁विस्त": 5376,
      "](<https://web.archive.org/web/200": 5377,
      "▁Official": 5378,
      "ोलकाता": 5379,
      "िरपेक्ष": 5380,
      "▁२०१": 5381,
      "ीमबेट": 5382,
      "▁template\n": 5383,
      "राजस्थान](<./राजस्थान": 5384,
      "▁आक्रम": 5385,
      "▁हिमालय": 5386,
      "▁जयंती": 5387,
      "▁पर्वत": 5388,
      "reedom": 5389,
      "Emblem_of_India": 5390,
      "चेन्नई": 5391,
      "ीमबेटका": 5392,
      "राजस्थान](<./राजस्थान>": 5393,
      "/article": 5394,
      "1–": 5395,
      "2–": 5396,
      "3TR": 5397,
      "63": 5398,
      "64": 5399,
      "68": 5400,
      "6]](<./India#cite_note-FOOTNOTE": 5401,
      "_\n": 5402,
      "_g": 5403,
      "_for": 5404,
      "dr": 5405,
      "ey": 5406,
      "ez": 5407,
      "ele": 5408,
      "i)": 5409,
      "len": 5410,
      "lance": 5411,
      "nominal": 5412,
      "par": 5413,
      "rial": 5414,
      "t,": 5415,
      "va": 5416,
      "vel": 5417,
      "xp": 5418,
      "yam": 5419,
      "खण्ड": 5420,
      "१५": 5421,
      "१६": 5422,
      "](<./ड": 5423,
      "▁[ड": 5424,
      "▁\"ओ": 5425,
      "▁\"ड": 5426,
      "▁\"दिल्ली": 5427,
      "thnic": 5428,
      "eries": 5429,
      "ors": 5430,
      "estic": 5431,
      "▁कम": 5432,
      "ison": 5433,
      "▁सो": 5434,
      "▁सीमा": 5435,
      "▁सिनेमा": 5436,
      "cid": 5437,
      "cip": 5438,
      "▁महासागर": 5439,
      "as,": 5440,
      "ान](<./": 5441,
      "▁India\n": 5442,
      "▁India](<./G": 5443,
      "law": 5444,
      "2015": 5445,
      "्ता": 5446,
      "-07": 5447,
      "-1>": 5448,
      "ett": 5449,
      "adhy": 5450,
      "\\)\"),": 5451,
      "▁12.": 5452,
      "ecre": 5453,
      "ams": 5454,
      "ament": 5455,
      "▁Summit\")\n": 5456,
      "▁country": 5457,
      "▁C.": 5458,
      "▁made": 5459,
      "urn": 5460,
      "ांति": 5461,
      "▁बदल": 5462,
      "्वज": 5463,
      "▁2011.": 5464,
      "▁D.": 5465,
      "akhand": 5466,
      "चा_": 5467,
      "aputra": 5468,
      "imag": 5469,
      "द्रा": 5470,
      "▁2005": 5471,
      "s_P": 5472,
      "ताब्": 5473,
      "ressive": 5474,
      "▁rec": 5475,
      "▁relation": 5476,
      "▁Fund": 5477,
      "्रेल": 5478,
      "harm": 5479,
      "▁\"Category:": 5480,
      "](<./Category:": 5481,
      "ीपी": 5482,
      "▁Valley": 5483,
      "▁हैं,": 5484,
      "युद्ध": 5485,
      "_East_Asia_Summit>": 5486,
      "](<./National_": 5487,
      "ultural": 5488,
      "onstitutional": 5489,
      "स्ट्रेल": 5490,
      "olitical_": 5491,
      "](<./History": 5492,
      "िंधु": 5493,
      "समूह": 5494,
      "-largest": 5495,
      "lowing": 5496,
      "reek": 5497,
      "▁lead": 5498,
      "▁left": 5499,
      "-india-": 5500,
      "ंपनी": 5501,
      "▁इसके": 5502,
      "International_": 5503,
      "िक्किम": 5504,
      "पालिका": 5505,
      "uddhist": 5506,
      "flu": 5507,
      "▁York": 5508,
      "rishn": 5509,
      "rahmaputra": 5510,
      "_उत्": 5511,
      "▁स्थित": 5512,
      "छत्तीसगढ": 5513,
      "emocracy": 5514,
      "ediev": 5515,
      "▁prime": 5516,
      "urvey": 5517,
      "india-glance": 5518,
      "rganization": 5519,
      "3TRt": 5520,
      "125": 5521,
      "3-": 5522,
      "RL": 5523,
      "_13": 5524,
      "bc": 5525,
      "rs": 5526,
      "चि": 5527,
      "पया": 5528,
      "माल": 5529,
      "व्ह": 5530,
      "](<./लोक": 5531,
      "▁\"लोक": 5532,
      "ार्क": 5533,
      "erlin": 5534,
      "▁सर": 5535,
      "▁सभा": 5536,
      "▁मिल": 5537,
      "▁(2006": 5538,
      "▁second": 5539,
      "▁S.": 5540,
      "▁जे": 5541,
      "ांड": 5542,
      "▁बौद्ध": 5543,
      "▁उद्य": 5544,
      "imal": 5545,
      "▁रहा": 5546,
      "▁प्राप्त": 5547,
      "▁economy": 5548,
      "्यटन": 5549,
      "hasha": 5550,
      "धुनिक": 5551,
      "urrent": 5552,
      "▁उदाहरण": 5553,
      "\"](<http://www.": 5554,
      ",NG": 5555,
      "-पाकिस्तान": 5556,
      "-world": 5557,
      ".పూ.": 5558,
      ".world": 5559,
      "119": 5560,
      "DD": 5561,
      "Ministry_of_": 5562,
      "PE": 5563,
      "Republic": 5564,
      "Report": 5565,
      "Rowland": 5566,
      "SAARC": 5567,
      "UI": 5568,
      "View": 5569,
      "_ह": 5570,
      "_ప్రదేశ్>": 5571,
      "ae": 5572,
      "aury": 5573,
      "britannica": 5574,
      "cast": 5575,
      "cise": 5576,
      "cms": 5577,
      "go": 5578,
      "ling": 5579,
      "nf": 5580,
      "olog": 5581,
      "s_of_India>": 5582,
      "top": 5583,
      "ue_": 5584,
      "y_": 5585,
      "ym": 5586,
      "कालीन": 5587,
      "त्क": 5588,
      "बे": 5589,
      "हरा": 5590,
      "ूड": 5591,
      "ौद्योगिकी": 5592,
      "ంతం": 5593,
      "ఆగ": 5594,
      "కళ": 5595,
      "ఖండ్": 5596,
      "గఢ": 5597,
      "గ్": 5598,
      "గిన": 5599,
      "జో": 5600,
      "ట్ర": 5601,
      "తెలుగు": 5602,
      "పద": 5603,
      "భి": 5604,
      "మై": 5605,
      "యో": 5606,
      "లక్ష": 5607,
      "వర": 5608,
      "శో": 5609,
      "షా": 5610,
      "హార్": 5611,
      "హాయ": 5612,
      "ాష్ట్ర": 5613,
      "ీహార్": 5614,
      "ుల": 5615,
      "ుల్": 5616,
      "ోత్స": 5617,
      "ౌర్య": 5618,
      "▁భ": 5619,
      "▁ed": 5620,
      "▁lo": 5621,
      "▁out": 5622,
      "▁ed.).": 5623,
      "](<./ओ": 5624,
      "▁[d": 5625,
      "▁[సి": 5626,
      "▁[వి": 5627,
      "▁[पुरा": 5628,
      "▁[१९": 5629,
      "▁[हिन्दी": 5630,
      "▁\"[": 5631,
      "▁\"హ": 5632,
      "▁\"19": 5633,
      "▁\"సి": 5634,
      "▁\"ఢిల్లీ": 5635,
      "ndra": 5636,
      "208": 5637,
      "aries": 5638,
      "్రూ": 5639,
      "▁मत": 5640,
      "ानव": 5641,
      "leg": 5642,
      "raz": 5643,
      "▁summit": 5644,
      "ాలా": 5645,
      "ాలలో": 5646,
      "▁अव": 5647,
      "ाती": 5648,
      "ists": 5649,
      "▁co": 5650,
      "▁capit": 5651,
      "urk": 5652,
      "▁Publishing": 5653,
      "ला>": 5654,
      "ర్ణా": 5655,
      "ర్మే": 5656,
      "▁disc": 5657,
      "▁Tamil": 5658,
      "▁River": 5659,
      "లోక్‌సభ": 5660,
      "21>)": 5661,
      "ంది.\n": 5662,
      "▁David": 5663,
      "▁వే": 5664,
      "▁వంశ": 5665,
      "▁his": 5666,
      "operation": 5667,
      "Union": 5668,
      "राज्य>": 5669,
      "aylor": 5670,
      "ayback": 5671,
      "▁large": 5672,
      "imach": 5673,
      "▁Himalay": 5674,
      "_Ass": 5675,
      "_Affair": 5676,
      "ండర్": 5677,
      "▁చి": 5678,
      "ूनिव": 5679,
      "abha": 5680,
      "తి>": 5681,
      "▁विभाग": 5682,
      "राष्ट्रपति": 5683,
      "త్మా": 5684,
      "ains": 5685,
      "▁new": 5686,
      "ికి": 5687,
      "-9>": 5688,
      "ద్దు": 5689,
      "▁भाषाओं": 5690,
      "िये": 5691,
      "ournal": 5692,
      "మాచల్": 5693,
      "రువా": 5694,
      "రుణా": 5695,
      "▁సామ్రాజ్య": 5696,
      "▁రహదార": 5697,
      "2905": 5698,
      "న్నో": 5699,
      ".svg/250px-": 5700,
      "▁घोष": 5701,
      "మిజో": 5702,
      "वीं": 5703,
      "achine": 5704,
      "धिकारिक": 5705,
      "▁ఇది": 5706,
      "rough": 5707,
      "▁जाती": 5708,
      "ंबेड": 5709,
      "▁జరి": 5710,
      "engali": 5711,
      "▁मोदी": 5712,
      "atis": 5713,
      "ative": 5714,
      "▁సామ్రాజ్యం\")|": 5715,
      "▁status": 5716,
      "industan": 5717,
      "ట్టు": 5718,
      "timesofindia": 5719,
      "కోవ": 5720,
      "ంగ్లీ": 5721,
      "overty": 5722,
      "రాష్ట్రాలు": 5723,
      "వేద": 5724,
      "radesh>": 5725,
      "▁రాజకీయ": 5726,
      "रेल": 5727,
      "హిమాచల్": 5728,
      "హాత్మా": 5729,
      "▁डॉल": 5730,
      "क्स": 5731,
      "హారాష్ట్ర": 5732,
      "రాజస్థాన్": 5733,
      "▁శతాబ్ద": 5734,
      "▁[t](<./": 5735,
      "▁వాతావరణ": 5736,
      "-107-111": 5737,
      "దినోత్స": 5738,
      "బెంగాల": 5739,
      "fication": 5740,
      "యన్మార్": 5741,
      "▁ముఖ్య": 5742,
      "▁[v](<./": 5743,
      "istorical": 5744,
      "▁text": 5745,
      "▁సంస్కృతి|": 5746,
      "ounci": 5747,
      "▁न्यायालय": 5748,
      "_union_territ": 5749,
      "సింధు": 5750,
      "usiness/": 5751,
      "ంజాబ్": 5752,
      "▁వ్యాస": 5753,
      "-780": 5754,
      "▁Affairs": 5755,
      "గుజరాత్": 5756,
      "ఆఫ్ఘనిస్తాన్": 5757,
      "న్‌ఫర్మే": 5758,
      "▁अगस्त": 5759,
      "mirate": 5760,
      "-19-882905": 5761,
      "రిహద్దు": 5762,
      "చ్చేరి": 5763,
      "्ता:": 5764,
      "ताब्दी": 5765,
      "Rowland1970": 5766,
      "britannica.com/": 5767,
      "▁[पुरालेखित": 5768,
      "ర్ణాటక": 5769,
      "రుణాచల్": 5770,
      "ंबेडकर": 5771,
      "timesofindia.indiatimes.com/": 5772,
      "-107-11162": 5773,
      "న్‌ఫర్మేషన్": 5774,
      ".\")\n": 5775,
      "Raj": 5776,
      "_ग": 5777,
      "_te": 5778,
      "_राज्य": 5779,
      "bbc": 5780,
      "ंनी": 5781,
      "गस्ट": 5782,
      "णारे": 5783,
      "फगा": 5784,
      "ये": 5785,
      "रवि": 5786,
      "वृत": 5787,
      "ुष्": 5788,
      "ॅक": 5789,
      "ोळी": 5790,
      "६-": 5791,
      "▁ऋ": 5792,
      "](<./तमिळनाडू": 5793,
      "▁[पु": 5794,
      "▁[पश्चिम": 5795,
      "▁\"तमिळनाडू": 5796,
      "▁\"वर्ग:CS1": 5797,
      "reater": 5798,
      "▁सुरु": 5799,
      "▁महाराष्ट्र": 5800,
      "2013": 5801,
      "▁वृ": 5802,
      "▁आढ": 5803,
      "▁आले": 5804,
      "_of_K": 5805,
      "▁तरी": 5806,
      "▁तयार": 5807,
      "▁Research": 5808,
      "ले.\n": 5809,
      "▁M.": 5810,
      "iger": 5811,
      ".[[३": 5812,
      ".[[४": 5813,
      "105": 5814,
      "विजय": 5815,
      "प्रजासत्ताक": 5816,
      "ध्यम": 5817,
      "▁परि": 5818,
      "▁होत": 5819,
      "शियाई": 5820,
      "िश्च": 5821,
      "▁राज्यात": 5822,
      "ानेवारी": 5823,
      "▁नावा": 5824,
      "▁प्रामुख्य": 5825,
      "_प्रदेश": 5826,
      "▁नेहर": 5827,
      "▁\"बंगाल": 5828,
      "▁मोठा": 5829,
      "_आशिया>": 5830,
      "स्वातंत्र्य": 5831,
      "ेतील": 5832,
      "▁आशिया\")": 5833,
      "▁भागात": 5834,
      "ेकड": 5835,
      "▁बहुतांशी": 5836,
      "▁राष्ट्रपती": 5837,
      "▁देख": 5838,
      "known": 5839,
      "local_": 5840,
      "▁खासदार": 5841,
      "ख्खन": 5842,
      "वर्ग:CS1_maint:": 5843,
      "▁लेणी": 5844,
      "▁झाली.": 5845,
      "टिबंध": 5846,
      "▁अजून": 5847,
      "▁जातो.": 5848,
      "क्षेत्रफळ": 5849,
      "▁मैदान": 5850,
      "uthority": 5851,
      "▁([link](<./वर्ग:CS1_maint:": 5852,
      "ुष्क": 5853,
      "](<./तमिळनाडू>": 5854,
      "▁सुरुव": 5855,
      "▁प्रामुख्याने": 5856,
      "-50": 5857,
      "-on-": 5858,
      ".ni": 5859,
      "/files/": 5860,
      "2]](<./India#cite_note-": 5861,
      "320": 5862,
      "7%": 5863,
      "7]](<./India#cite_note-FOOTNOTE": 5864,
      "Fr": 5865,
      "LO": 5866,
      "Th": 5867,
      "_[": 5868,
      "_t": 5869,
      "_icon": 5870,
      "af": 5871,
      "ced": 5872,
      "cted": 5873,
      "dia": 5874,
      "ham": 5875,
      "iet": 5876,
      "ject": 5877,
      "lof": 5878,
      "lurton": 5879,
      "min": 5880,
      "map": 5881,
      "rust": 5882,
      "s18": 5883,
      "troduc": 5884,
      "uard": 5885,
      "view": 5886,
      "}}": 5887,
      "इतिहास": 5888,
      "ऑस्ट्रेल": 5889,
      "तृत": 5890,
      "थवा": 5891,
      "धि": 5892,
      "फे": 5893,
      "यी": 5894,
      "रेंद्र": 5895,
      "सर": 5896,
      "संगीत": 5897,
      "िरा": 5898,
      "▁life": 5899,
      "▁urban": 5900,
      "](<./पु": 5901,
      "▁[4": 5902,
      "▁\"पु": 5903,
      "▁\"Indo-": 5904,
      "▁\"मुंबई": 5905,
      "oncise": 5906,
      "rev": 5907,
      "erry": 5908,
      "ortheast": 5909,
      "2024": 5910,
      "ara": 5911,
      "arath": 5912,
      "esert": 5913,
      "▁कॉ": 5914,
      "▁संग": 5915,
      "its": 5916,
      "▁them": 5917,
      "ourc": 5918,
      "icha": 5919,
      "icob": 5920,
      "▁मह": 5921,
      "idref": 5922,
      "▁painting": 5923,
      "▁ins": 5924,
      "▁influ": 5925,
      "ikk": 5926,
      "ing_": 5927,
      "▁अप्र": 5928,
      "▁अथवा": 5929,
      "▁11.": 5930,
      "▁15.": 5931,
      "▁13.": 5932,
      ".org": 5933,
      "▁billion": 5934,
      "lief": 5935,
      "▁ज्या": 5936,
      "▁P.": 5937,
      "स्ल": 5938,
      "▁त्र": 5939,
      "▁21.": 5940,
      "▁28.": 5941,
      "▁नी": 5942,
      "▁div": 5943,
      "▁dispu": 5944,
      "▁बना": 5945,
      "▁Territory": 5946,
      "olon": 5947,
      "क्षण": 5948,
      "▁B.": 5949,
      ".[[4": 5950,
      ".[[23": 5951,
      "वायु": 5952,
      "Inf": 5953,
      "elang": 5954,
      "apan": 5955,
      "▁eastern": 5956,
      "▁rem": 5957,
      "avy": 5958,
      "ainism": 5959,
      "द्दा": 5960,
      "hief": 5961,
      "▁J.": 5962,
      "udi": 5963,
      "uduch": 5964,
      "ucation": 5965,
      "ock": 5966,
      "▁Ocean": 5967,
      "▁Lank": 5968,
      "▁Kingdom": 5969,
      "मान्य": 5970,
      "▁करने": 5971,
      "▁[↑](<./India#cite_ref-FOOTNOTEMetcalfMetcalf2006": 5972,
      "ummer": 5973,
      "_Comm": 5974,
      "ternal": 5975,
      "-6>": 5976,
      "](<https://www.idref": 5977,
      "erent": 5978,
      "_summit": 5979,
      "%2C_India": 5980,
      "nium": 5981,
      "▁[National": 5982,
      "ंग्रेजी": 5983,
      "class": 5984,
      "\")_\n": 5985,
      "general_": 5986,
      "rovisions": 5987,
      "ैदरा": 5988,
      "▁unrecognized": 5989,
      "rown": 5990,
      "▁10.": 5991,
      "▁संस्कृत": 5992,
      "ravid": 5993,
      "ectancy": 5994,
      "नाडु": 5995,
      "▁2019.\n": 5996,
      "▁मेला\")": 5997,
      "▁हुए": 5998,
      "▁पूर्वी": 5999,
      "▁contrib": 6000,
      "▁Islands\")\n": 6001,
      "_Indian_general_": 6002,
      "पेक्षा": 6003,
      "▁Pradesh\")\n": 6004,
      "rogressive": 6005,
      "▁निर्माण": 6006,
      "ontent": 6007,
      "s_and_union_territ": 6008,
      "%7C": 6009,
      "%7c": 6010,
      ".fr/0": 6011,
      "ociety": 6012,
      "▁groups": 6013,
      "▁employ": 6014,
      "Indonesia": 6015,
      "तेलुगू": 6016,
      ".aspx?": 6017,
      "election>": 6018,
      "languages>": 6019,
      "ringer": 6020,
      "aldives": 6021,
      "3TRtDwAAQBAJ&pg=PA": 6022,
      "ichael": 6023,
      "icobar": 6024,
      "uducherry": 6025,
      "](<https://www.idref.fr/0": 6026,
      "_Indian_general_election>": 6027,
      "s_and_union_territories": 6028,
      "River": 6029,
      "e\n": 6030,
      "mand": 6031,
      "park": 6032,
      "ंच": 6033,
      "गध": 6034,
      "मत": 6035,
      "महा": 6036,
      "लेशिया": 6037,
      "हम": 6038,
      "े,": 6039,
      "ैथि": 6040,
      "ॉग": 6041,
      "▁९": 6042,
      "](<./य": 6043,
      "raj": 6044,
      "](<https://id": 6045,
      "क्षर": 6046,
      "irth": 6047,
      "▁_A": 6048,
      "▁गा": 6049,
      "▁शा": 6050,
      "▁शहरी": 6051,
      "▁2008": 6052,
      "s_D": 6053,
      "s_19": 6054,
      "ंडी": 6055,
      "e_on_the": 6056,
      "▁only": 6057,
      "▁रु": 6058,
      "्मिक": 6059,
      "ुरक्षा": 6060,
      "ext": 6061,
      "_Rat": 6062,
      "▁[बौद्ध": 6063,
      "त्यमे": 6064,
      "ondon": 6065,
      "5/5": 6066,
      "tree_on_the": 6067,
      "](<./पंजाब>": 6068,
      "ोजपुरी": 6069,
      "_-_": 6070,
      "युद्ध>": 6071,
      "विजयनगर": 6072,
      "ैथिली": 6073,
      "त्यमेव": 6074,
      "tree_on_the_b": 6075,
      "\"](<https://web.archive.org/web/20": 6076,
      "-with": 6077,
      "/link": 6078,
      "/ark": 6079,
      "/author": 6080,
      "/121": 6081,
      "1200": 6082,
      "124": 6083,
      "240": 6084,
      "4]](<./India#cite_note-": 6085,
      "577": 6086,
      "9,": 6087,
      ":/121": 6088,
      "B0%": 6089,
      "C-0": 6090,
      "IJ": 6091,
      "QAAQBAJ&pg=PA": 6092,
      "_द": 6093,
      "_ex": 6094,
      "cess": 6095,
      "eth": 6096,
      "glia": 6097,
      "garh": 6098,
      "ii": 6099,
      "lood": 6100,
      "m2": 6101,
      "most": 6102,
      "oard": 6103,
      "p?": 6104,
      "tl": 6105,
      "tw": 6106,
      "ward": 6107,
      "ze": 6108,
      "{{": 6109,
      "ँच": 6110,
      "इट": 6111,
      "चर": 6112,
      "तट": 6113,
      "मरी": 6114,
      "यपुर": 6115,
      "रण": 6116,
      "िज": 6117,
      "्न": 6118,
      "కారం": 6119,
      "గర్": 6120,
      "గంగా": 6121,
      "టో": 6122,
      "డిన": 6123,
      "ధి": 6124,
      "ధించ": 6125,
      "నల్": 6126,
      "మన": 6127,
      "మర": 6128,
      "ర్యా": 6129,
      "లం": 6130,
      "లతో": 6131,
      "లమె": 6132,
      "శ్ర": 6133,
      "ీస్": 6134,
      "ూప": 6135,
      "ూరు": 6136,
      "ౌక": 6137,
      "▁z": 6138,
      "▁శా": 6139,
      "▁హిందూ": 6140,
      "▁గాంధీ": 6141,
      "](<./चीन": 6142,
      "](<./Indo-": 6143,
      "](<./गुजरात": 6144,
      "▁[U": 6145,
      "▁[f": 6146,
      "▁[श": 6147,
      "▁[భారతదేశం": 6148,
      "▁[गण": 6149,
      "▁[ఢిల్లీ": 6150,
      "▁[राजस्थान](<./राजस्थान>": 6151,
      "▁\"गुजरात": 6152,
      "iam": 6153,
      "tered": 6154,
      "tis": 6155,
      "erg": 6156,
      "orce": 6157,
      "ars": 6158,
      "estiv": 6159,
      "▁स्मार": 6160,
      "theh": 6161,
      "▁पुर": 6162,
      "▁मशी": 6163,
      "ase_": 6164,
      "र्द्र": 6165,
      "ారస": 6166,
      "ootb": 6167,
      "यास": 6168,
      "rature": 6169,
      "▁pop": 6170,
      "▁हिं": 6171,
      "▁हवेली": 6172,
      "▁serv": 6173,
      "ాలను": 6174,
      "▁अल": 6175,
      "-13": 6176,
      "-135": 6177,
      "adwe": 6178,
      "▁16.": 6179,
      "ece": 6180,
      "ecu": 6181,
      "స్](<./": 6182,
      "▁far": 6183,
      "▁प्रति": 6184,
      "▁పెద్ద": 6185,
      "▁women": 6186,
      "▁culture": 6187,
      "▁Centre": 6188,
      "▁दिवस": 6189,
      "▁bord": 6190,
      "▁केन्द्र": 6191,
      "▁mar": 6192,
      "▁mi)": 6193,
      "hell": 6194,
      "▁नहीं": 6195,
      "00–సా.శ.పూ.": 6196,
      "uled": 6197,
      "ign_": 6198,
      "109": 6199,
      "ంది": 6200,
      "shared": 6201,
      "architecture": 6202,
      "even": 6203,
      "evanag": 6204,
      "▁शताब्दी": 6205,
      "tures": 6206,
      "माय": 6207,
      "ime": 6208,
      "▁Government": 6209,
      "_Arab": 6210,
      "पुत्र": 6211,
      "▁November": 6212,
      "▁Nehru": 6213,
      "▁से](<http://": 6214,
      "▁1960": 6215,
      "త్తం": 6216,
      "▁From": 6217,
      "▁[\"A": 6218,
      "▁[\"H": 6219,
      "▁non-": 6220,
      "a_N": 6221,
      "▁అతి": 6222,
      "▁అనే": 6223,
      "▁ప్రజ": 6224,
      "ంచి": 6225,
      "▁Linguistic": 6226,
      "ింది.\n": 6227,
      "▁ఆఫ్": 6228,
      "-7>": 6229,
      "▁సాం": 6230,
      "▁है।[[": 6231,
      "▁[Ministry": 6232,
      "undament": 6233,
      "ార్లమె": 6234,
      "ternational": 6235,
      "▁technology": 6236,
      "▁\"British": 6237,
      "▁राजधानी": 6238,
      "](<./British": 6239,
      "కిస్థాన్": 6240,
      "48/c": 6241,
      "_GDP": 6242,
      "ording": 6243,
      "▁నే": 6244,
      "▁నగర": 6245,
      "overnment_of_India>": 6246,
      "ాయి.": 6247,
      "_Nadu": 6248,
      "hmed": 6249,
      "](<./List_of_SAARC": 6250,
      "ेरळ": 6251,
      "ोरम": 6252,
      "▁[![](//upload.wikimedia.org/wikipedia/commons/thumb/a/a": 6253,
      "టిబె": 6254,
      "india.gov.in_": 6255,
      "్రీ.పూ.": 6256,
      "anipur": 6257,
      "▁[![A": 6258,
      "athura": 6259,
      "MetcalfMetcalf201": 6260,
      "ंग्रेस": 6261,
      "▁విస్త": 6262,
      "▁చరిత్ర\n": 6263,
      "ండియా": 6264,
      "▁२००": 6265,
      "▁\"जम्मू": 6266,
      "ंतरराष्ट्रीय": 6267,
      "▁ఎక్కువ": 6268,
      "▁ఎన్నో": 6269,
      "विशेष:EditPage/": 6270,
      "హిందీ": 6271,
      "amil_Nadu": 6272,
      "ancis": 6273,
      "india.gov.in/india-glance": 6274,
      "_సం": 6275,
      "ashmiri": 6276,
      "ారు.\n": 6277,
      "▁भूगोल": 6278,
      "▁Hinduism": 6279,
      "ఢిల్లీ>": 6280,
      "▁सर्वोच्च": 6281,
      "టుంబ": 6282,
      "▁सूची\")": 6283,
      "_Lank": 6284,
      "7/7": 6285,
      "▁Indus": 6286,
      "awahar": 6287,
      "▁భారత్": 6288,
      "गुजरात](<./गुजरात": 6289,
      "मेरिका": 6290,
      "9/9": 6291,
      "బాద్": 6292,
      "▁మొత్తం": 6293,
      "ంపెన": 6294,
      "cyclop": 6295,
      "irector": 6296,
      "akshadwe": 6297,
      "vention": 6298,
      "▁स्रोत/978-0": 6299,
      "▁स्रोत/978-1": 6300,
      "](<./विशेष:पुस्तक_स्रोत/978-0": 6301,
      "](<./विशेष:पुस्तक_स्रोत/978-1": 6302,
      ".fr/ark": 6303,
      "హ్మ": 6304,
      "-lead": 6305,
      "▁द्वीपसमूह": 6306,
      "](<./List_of_countries_by_GDP": 6307,
      "Uttarakhand": 6308,
      "▁ఏర్": 6309,
      ".bnf": 6310,
      "్రిటిషు": 6311,
      "కేంద్రపాలిత_ప్రాంత": 6312,
      "omason": 6313,
      "_BRICS_summit>": 6314,
      "▁चुनाव": 6315,
      "▁అత్యధిక": 6316,
      "nclm.nic.in/shared": 6317,
      "etraglia": 6318,
      "ీర్ణ": 6319,
      "▁Persian": 6320,
      "దక్షిణ_ఆసియా": 6321,
      "Indo-Aryan": 6322,
      "images/": 6323,
      "edieval": 6324,
      "razil": 6325,
      "▁summits\")\n": 6326,
      "रेलू": 6327,
      "ikkim": 6328,
      "_summits>": 6329,
      "/linkimages/": 6330,
      ":/12148/c": 6331,
      "ootball": 6332,
      "evanagari": 6333,
      "](<./List_of_SAARC_summits>": 6334,
      "विशेष:EditPage/साँचा:": 6335,
      "awaharl": 6336,
      "गुजरात](<./गुजरात>": 6337,
      "akshadweep": 6338,
      ".fr/ark:/12148/c": 6339,
      "](<./List_of_countries_by_GDP_\\(": 6340,
      ".bnf.fr/ark:/12148/c": 6341,
      "nclm.nic.in/shared/linkimages/": 6342,
      ".bnf.fr/ark:/12148/cb": 6343,
      "52": 6344,
      "CIA": 6345,
      "_)": 6346,
      "_term": 6347,
      "dd": 6348,
      "fun": 6349,
      "hl": 6350,
      "गान": 6351,
      "टे": 6352,
      "ल्त": 6353,
      "षभ": 6354,
      "ैव": 6355,
      "्ले": 6356,
      "–4": 6357,
      "orm": 6358,
      "en:": 6359,
      "uman_": 6360,
      "angur": 6361,
      "ांवर": 6362,
      "▁नव": 6363,
      "▁Factbook": 6364,
      "णी>": 6365,
      "Hard": 6366,
      "_मंदिर": 6367,
      "▁[बंगाल": 6368,
      "▁[![](//upload.wikimedia.org/wikipedia/commons/thumb/2/": 6369,
      "वर्ष": 6370,
      "▁\"बौद्ध": 6371,
      "](<./बौद्ध": 6372,
      "ज्ज": 6373,
      "_नृत्य>": 6374,
      "▁१९९": 6375,
      "---|---|": 6376,
      "99-": 6377,
      "olden_Temple": 6378,
      "rotection": 6379,
      "▁सैन्य": 6380,
      "ities/": 6381,
      "ल्तनत": 6382,
      "\"](<http://": 6383,
      "-D": 6384,
      "-n": 6385,
      "-and": 6386,
      "-World": 6387,
      "-विज्ञान": 6388,
      "-वेरूळ": 6389,
      "130": 6390,
      "127": 6391,
      "318": 6392,
      "4]](<./India#cite_note-FOOTNOTE": 6393,
      "5]](<./India#cite_note-FOOTNOTE": 6394,
      "7]](<./India#cite_note-": 6395,
      "9]](<./India#cite_note-": 6396,
      "AS": 6397,
      "Census": 6398,
      "European": 6399,
      "Gua": 6400,
      "IB": 6401,
      "JIJ": 6402,
      "MC": 6403,
      "MID": 6404,
      "NA": 6405,
      "Provision": 6406,
      "S.": 6407,
      "Vu": 6408,
      "Zva": 6409,
      "ZVu": 6410,
      "_श": 6411,
      "_19": 6412,
      "_24": 6413,
      "_14": 6414,
      "aul": 6415,
      "cia": 6416,
      "dish": 6417,
      "gra": 6418,
      "ge_": 6419,
      "history": 6420,
      "kZVu": 6421,
      "nc": 6422,
      "oa": 6423,
      "pi": 6424,
      "pecial": 6425,
      "t>": 6426,
      "ues": 6427,
      "val": 6428,
      "y\")": 6429,
      "ंपी": 6430,
      "आणि": 6431,
      "ईरा": 6432,
      "ओ.": 6433,
      "णात": 6434,
      "त>": 6435,
      "न्या": 6436,
      "फ्रीका": 6437,
      "बट": 6438,
      "मण": 6439,
      "सून": 6440,
      "ा>": 6441,
      "ीच": 6442,
      "ेन्द्र": 6443,
      "ोआ": 6444,
      "्हा": 6445,
      "०]](<./भारत#cite_note-": 6446,
      "१]](<./भारत#cite_note-": 6447,
      "४]](<./भारत#cite_note-": 6448,
      "–24": 6449,
      "▁औ": 6450,
      "▁Qu": 6451,
      "](<./गण": 6452,
      "](<./मुंबई": 6453,
      "](<./South_Asian_": 6454,
      "▁[य": 6455,
      "▁[चीन": 6456,
      "▁[World": 6457,
      "▁[तमिळनाडू": 6458,
      "▁[गुजरात](<./गुजरात>": 6459,
      "▁\"श": 6460,
      "▁\"गण": 6461,
      "▁\"हिन्दी": 6462,
      "inanc": 6463,
      "th_BRICS_summit>": 6464,
      "rem": 6465,
      "reen": 6466,
      "ारचे": 6467,
      "2025": 6468,
      "aria": 6469,
      "arlo": 6470,
      "araj": 6471,
      "artition": 6472,
      "alog": 6473,
      "en,": 6474,
      "en/thumb/": 6475,
      "▁कई": 6476,
      "▁कमी": 6477,
      "▁कश्मीर": 6478,
      "▁सद": 6479,
      "▁सह": 6480,
      "▁संग्र": 6481,
      "▁सुरू": 6482,
      "▁सिंधू": 6483,
      "▁सध्या": 6484,
      "▁पंतप्रधान": 6485,
      "राण": 6486,
      "ick": 6487,
      "ानंतर": 6488,
      "▁(पूर्वी": 6489,
      "्याच्या": 6490,
      "nored": 6491,
      "rak": 6492,
      "▁आण": 6493,
      "▁आम": 6494,
      "▁आधिकारिक": 6495,
      "▁se": 6496,
      "▁sq": 6497,
      "▁sur": 6498,
      "▁sector": 6499,
      "](<./भारत_का_": 6500,
      "loth": 6501,
      "▁अशी": 6502,
      "ada": 6503,
      "▁Acc": 6504,
      "▁17.": 6505,
      "ama": 6506,
      ".org/w": 6507,
      "_of_2011": 6508,
      "▁प्रां": 6509,
      "▁प्रधान": 6510,
      "\"),[[": 6511,
      "▁wid": 6512,
      "▁when": 6513,
      "▁caus": 6514,
      "▁Civil": 6515,
      "▁tree": 6516,
      "ंगल": 6517,
      "िती": 6518,
      "urity": 6519,
      "▁जास्त": 6520,
      "▁भारताने": 6521,
      "▁भारताचे": 6522,
      "▁Pe": 6523,
      "▁Punjab": 6524,
      "▁Programme": 6525,
      "लां": 6526,
      "ove": 6527,
      "स्कार": 6528,
      "▁तो": 6529,
      "▁तिस": 6530,
      "emographic": 6531,
      "emale": 6532,
      "▁2,": 6533,
      "ांनी": 6534,
      "0000": 6535,
      "▁dom": 6536,
      "▁development": 6537,
      "▁बीच": 6538,
      "▁Republic": 6539,
      "olence": 6540,
      "▁2018": 6541,
      "ignored": 6542,
      "न्दा": 6543,
      "ष्ट्य": 6544,
      "▁काश्मीर": 6545,
      "▁आहे,": 6546,
      "ship": 6547,
      "▁hum": 6548,
      "▁house": 6549,
      "](//upload.wikimedia.org/wikipedia/en/thumb/": 6550,
      "-230": 6551,
      "स्त्र": 6552,
      "1993": 6553,
      "▁शत": 6554,
      "▁शे": 6555,
      "▁20.": 6556,
      "▁इन": 6557,
      "▁से](<http://www.": 6558,
      "-3>": 6559,
      "हिंदू": 6560,
      "▁report": 6561,
      "▁religious": 6562,
      "▁1965": 6563,
      "](<./India#CITEREFB": 6564,
      "▁these": 6565,
      "▁[मूळ": 6566,
      "द्दु": 6567,
      "▁name": 6568,
      "ी_म": 6569,
      "Indust": 6570,
      "utral": 6571,
      "ockey": 6572,
      "्राय": 6573,
      ".gov.in": 6574,
      "▁लग": 6575,
      "o-d": 6576,
      "o-operation": 6577,
      "▁१५": 6578,
      "▁१८": 6579,
      "े_आणि": 6580,
      "शियातील": 6581,
      "](<https://books.google.com/books?id=Zva": 6582,
      "ource": 6583,
      "](<./केर": 6584,
      "](<./कर्नाटक": 6585,
      "▁\"कर्नाटक": 6586,
      "▁करण्यात": 6587,
      "▁करोड़": 6588,
      "▁[↑](<./India#cite_ref-FOOTNOTEB": 6589,
      "ligions": 6590,
      "emplate_": 6591,
      "_मो": 6592,
      "्यांना": 6593,
      "्यांचा": 6594,
      "▁[कर्नाटक": 6595,
      "▁[British": 6596,
      "-674": 6597,
      "-691": 6598,
      "_population": 6599,
      "▁राजनी": 6600,
      "▁\"अंग्रेज़ी": 6601,
      "▁एकूण": 6602,
      "▁Press](<./C": 6603,
      "_Total": 6604,
      "▁[अंग्रेज़ी": 6605,
      "▁नाटक": 6606,
      "489": 6607,
      "▁प्राण": 6608,
      "िवूड": 6609,
      "▁language\"),": 6610,
      "▁घाट": 6611,
      "opulation_Total": 6612,
      "▁चळ": 6613,
      "▁\"Template:": 6614,
      "](<./Template:": 6615,
      "िळक": 6616,
      "erala": 6617,
      "▁झाल": 6618,
      "▁मुघल": 6619,
      "▁[Dyson": 6620,
      "▁\"Government": 6621,
      "हाराज": 6622,
      "▁वापर": 6623,
      "▁वाळवंट": 6624,
      "uddha": 6625,
      "ibcod": 6626,
      "▁[Government": 6627,
      "ameter": 6628,
      "▁स्वातंत्र्य": 6629,
      "html>).": 6630,
      "](<./जम्मू": 6631,
      "_भारत>": 6632,
      "_1_of_2011": 6633,
      "हित.": 6634,
      "umbers": 6635,
      "▁जनगणना": 6636,
      "Asia.PNG": 6637,
      "▁मानवी": 6638,
      "▁km2": 6639,
      "▁regions": 6640,
      "alayal": 6641,
      "embers": 6642,
      "ighth": 6643,
      "▁संस्कृति": 6644,
      "ब्ब": 6645,
      "विधान>": 6646,
      "ंग्रज": 6647,
      "डाख": 6648,
      ".svg.png)](<./File:": 6649,
      "ोबत": 6650,
      "74-108": 6651,
      "▁This": 6652,
      "Increase](//upload.wikimedia.org/wikipedia/commons/thumb/b/b0/Increase2.svg/20px-Increase2.svg.png)": 6653,
      "मुंबई](<./मुंबई": 6654,
      "▁control": 6655,
      "स.ओ.": 6656,
      "_संघ": 6657,
      "ंदीगढ": 6658,
      "aper_1_of_2011": 6659,
      "▁composed": 6660,
      "tive_": 6661,
      "शिष्ट्य": 6662,
      "▁गणराज्यचे": 6663,
      "▁कारण": 6664,
      "▁म्हणून": 6665,
      "ॉलिवूड": 6666,
      "-4020": 6667,
      "▁along": 6668,
      "▁जिसमें": 6669,
      "▁होती.": 6670,
      "▁![Increase](//upload.wikimedia.org/wikipedia/commons/thumb/b/b0/Increase2.svg/20px-Increase2.svg.png)": 6671,
      "ोर्ड": 6672,
      "न्दिर": 6673,
      "Map-World": 6674,
      "तो.": 6675,
      "ustralia": 6676,
      "ण्यास": 6677,
      "विषुव": 6678,
      "▁\\(India\\)\")\n": 6679,
      "▁Registrar": 6680,
      "▁Plateau": 6681,
      "▁जाते.": 6682,
      "▁पाहिले.\n": 6683,
      "al_Population_Total": 6684,
      "ताजमहाल": 6685,
      "ymbols": 6686,
      "ेंजो": 6687,
      "▁क्रमांक": 6688,
      "▁वैशिष्ट्य": 6689,
      "hristian": 6690,
      "वेबैक": 6691,
      "जिंठा-वेरूळ": 6692,
      "▁ठिका": 6693,
      "Neutral": 6694,
      "arnatic": 6695,
      "य.एस.ओ.": 6696,
      "roadcast": 6697,
      "▁addition": 6698,
      "ecret": 6699,
      "s_Paper_1_of_2011": 6700,
      "▁relations": 6701,
      "](<./History_of_": 6702,
      "topic": 6703,
      "ूनिवर्": 6704,
      "-78074-108": 6705,
      "फगाणि": 6706,
      "▁आढळ": 6707,
      "ेकडील": 6708,
      "क्षेत्रफळानुसार": 6709,
      "GuaJIJ": 6710,
      "Provisional_Population_Total": 6711,
      "▁संग्रहित.": 6712,
      "द्दुचेरी": 6713,
      "](<https://books.google.com/books?id=ZvaGuaJIJ": 6714,
      "▁[अंग्रेज़ी](<./अ": 6715,
      "मुंबई](<./मुंबई>": 6716,
      "Map-World-": 6717,
      "जिंठा-वेरूळची": 6718,
      "roadcasting": 6719,
      "s_Paper_1_of_2011_India": 6720,
      "Provisional_Population_Totals_Paper_1_of_2011_India": 6721,
      "](<https://books.google.com/books?id=ZvaGuaJIJgo": 6722,
      "/F": 6723,
      "/>).": 6724,
      "1>)\n": 6725,
      "4>).": 6726,
      "8D": 6727,
      "Biodiversity": 6728,
      "East": 6729,
      "bhasha": 6730,
      "east": 6731,
      "was": 6732,
      "ट्ट": 6733,
      "णाली": 6734,
      "नता": 6735,
      "निरपेक्ष": 6736,
      "भि": 6737,
      "भु": 6738,
      "वी_": 6739,
      "ौर": 6740,
      "▁[का": 6741,
      "▁[लोक": 6742,
      "ार>": 6743,
      "▁साल": 6744,
      "cif": 6745,
      "राक": 6746,
      "ica": 6747,
      "▁वर": 6748,
      "▁प्रांत": 6749,
      "library": 6750,
      "▁Part": 6751,
      "न्स": 6752,
      "न्ह": 6753,
      "षाण": 6754,
      "1999": 6755,
      "ती>": 6756,
      "▁उद्योग": 6757,
      "▁इत्या": 6758,
      "▁संख्या": 6759,
      "▁[\"G": 6760,
      "25>)": 6761,
      "▁([स": 6762,
      "्राम": 6763,
      "uggle": 6764,
      "anks": 6765,
      "_November": 6766,
      "▁नेतृत": 6767,
      "वर्ण": 6768,
      "▁1998": 6769,
      "_Economic": 6770,
      "%E0%A4%B0%E0%A4%": 6771,
      "html>)": 6772,
      "▁स्थापत्य": 6773,
      "/index.php?": 6774,
      "(సా.శ.": 6775,
      "-ex": 6776,
      "/D": 6777,
      "/g": 6778,
      "2nd": 6779,
      "350": 6780,
      "7C": 6781,
      "7>)\n": 6782,
      "83": 6783,
      "AG": 6784,
      "ES": 6785,
      "Ethnologue": 6786,
      "FT": 6787,
      "Home": 6788,
      "IUCN": 6789,
      "Mumbai": 6790,
      "OOj": 6791,
      "_edit": 6792,
      "_10": 6793,
      "_11": 6794,
      "_17": 6795,
      "_43": 6796,
      "_జాబితా": 6797,
      "ax": 6798,
      "aos": 6799,
      "bour": 6800,
      "ds": 6801,
      "day": 6802,
      "document": 6803,
      "eat": 6804,
      "ght": 6805,
      "hu": 6806,
      "hol": 6807,
      "hut": 6808,
      "ks": 6809,
      "mr": 6810,
      "ns": 6811,
      "nar": 6812,
      "pture": 6813,
      "ula": 6814,
      "ually": 6815,
      "ves": 6816,
      "yp": 6817,
      "ंभ": 6818,
      "एशिया": 6819,
      "गल": 6820,
      "रूप": 6821,
      "सू": 6822,
      "ो-": 6823,
      "५७": 6824,
      "ఆంధ": 6825,
      "డో": 6826,
      "తీ": 6827,
      "తే": 6828,
      "థి": 6829,
      "పించ": 6830,
      "ఫై": 6831,
      "బడ్డ": 6832,
      "భర": 6833,
      "మహ": 6834,
      "మలు": 6835,
      "యన": 6836,
      "రంగ": 6837,
      "లయా": 6838,
      "శీ": 6839,
      "షనల్": 6840,
      "స్య": 6841,
      "హర్": 6842,
      "ృద్ధి": 6843,
      "ెంగ": 6844,
      "ేర": 6845,
      "–10": 6846,
      "▁६": 6847,
      "▁७": 6848,
      "▁old": 6849,
      "▁దక్షిణ": 6850,
      "▁దా": 6851,
      "▁`|": 6852,
      "▁నాగరికత": 6853,
      "▁టెక్నాలజీ": 6854,
      "](<./श": 6855,
      "](<./पूर्व": 6856,
      "](<./ఢిల్లీ>": 6857,
      "▁[सा": 6858,
      "▁\"साँचा:": 6859,
      "\")1": 6860,
      "iary": 6861,
      "ines": 6862,
      "an,": 6863,
      "anoram": 6864,
      "aro": 6865,
      "alit": 6866,
      "ed,": 6867,
      "ediff": 6868,
      "▁कुल": 6869,
      "▁सभ": 6870,
      "▁सूचना": 6871,
      "▁मि": 6872,
      "र्मा": 6873,
      "▁(19": 6874,
      "▁(2014": 6875,
      "▁India](<./C": 6876,
      "idy": 6877,
      "▁prom": 6878,
      "▁prov": 6879,
      "2002": 6880,
      "▁sim": 6881,
      "-05": 6882,
      "entury": 6883,
      "lock": 6884,
      "adras": 6885,
      "▁18.": 6886,
      "atyam": 6887,
      "eck": 6888,
      "ecurity": 6889,
      "స్>": 6890,
      "▁Singh": 6891,
      "దేశం": 6892,
      "దేశాల": 6893,
      "▁fam": 6894,
      "▁work": 6895,
      "▁web": 6896,
      "▁colle": 6897,
      "▁Central": 6898,
      "▁Cooperation": 6899,
      "▁दशक": 6900,
      "lif": 6901,
      "▁Park": 6902,
      "illa": 6903,
      "ర్\")": 6904,
      "ర్లు": 6905,
      "ema": 6906,
      "emon": 6907,
      "▁नौ": 6908,
      "▁dependencies": 6909,
      "లు?action=edit&redlink=1>": 6910,
      "రాఠ": 6911,
      "]](<./India#cite_note-Combined": 6912,
      "▁Muslim": 6913,
      "▁2012.": 6914,
      "▁2014.": 6915,
      "tics": 6916,
      "igarh": 6917,
      "▁కి": 6918,
      "▁కో": 6919,
      "▁Buddhist": 6920,
      ".[[40": 6921,
      "క్టో": 6922,
      "నియా": 6923,
      "▁వర్": 6924,
      "▁వారస": 6925,
      "stan": 6926,
      "▁her": 6927,
      "akes": 6928,
      "-29": 6929,
      "▁गांधी": 6930,
      "ల్>": 6931,
      "ల్వే": 6932,
      "](//upload.wikimedia.org/wikipedia/commons/thumb/8/8": 6933,
      "▁शक्ति": 6934,
      "▁సరిహద్దు": 6935,
      "▁మన": 6936,
      "▁మూ": 6937,
      "▁మతం": 6938,
      "▁Games": 6939,
      "▁H.": 6940,
      "_Act": 6941,
      "▁2001": 6942,
      "s_UI": 6943,
      "ండమా": 6944,
      "260": 6945,
      "261": 6946,
      "267": 6947,
      "-3>)": 6948,
      "▁చిన్న": 6949,
      "-8](<./Special:BookSources/978-0": 6950,
      "తాన": 6951,
      "ode": 6952,
      "ముఖ": 6953,
      "తి\")": 6954,
      "▁religion": 6955,
      "త్వం": 6956,
      "▁through": 6957,
      "ained": 6958,
      "▁nation": 6959,
      "▁near": 6960,
      "archive.org/detail": 6961,
      "ులు,": 6962,
      "ులు\")": 6963,
      "–సా.శ.17": 6964,
      "–సా.శ.15": 6965,
      "▁(సా.శ.17": 6966,
      "▁(సా.శ.15": 6967,
      "▁(సా.శ.13": 6968,
      "▁ప్రతి": 6969,
      "▁ప్రస్తు": 6970,
      "▁ప్రకారం": 6971,
      "▁ప్రముఖ": 6972,
      "E0%B0%": 6973,
      "ociation": 6974,
      "AAJ": 6975,
      "కుడు": 6976,
      "ంచిన": 6977,
      "ott": 6978,
      "-95": 6979,
      "166": 6980,
      "_and_d": 6981,
      "▁United": 6982,
      "▁\"Mughal": 6983,
      "▁సాధించ": 6984,
      "](<./Mugh": 6985,
      "▁రో": 6986,
      "▁రంగ": 6987,
      "▁రవాణా": 6988,
      "ష్టు": 6989,
      "▁ass": 6990,
      "_per": 6991,
      "▁within": 6992,
      "▁Press,": 6993,
      "ంతో": 6994,
      "▁language\")": 6995,
      "orden": 6996,
      "_map": 6997,
      "పాలన": 6998,
      "▁తరువా": 6999,
      "issing": 7000,
      "ం](<./భారతీయ": 7001,
      "గుర్": 7002,
      "నేషనల్": 7003,
      "-progressive": 7004,
      "▁क्षेत्रीय": 7005,
      ",_కేంద్రపాలిత_ప్రాంత": 7006,
      "ंगाल>": 7007,
      "▁\"Re": 7008,
      "▁ప్రాంతం": 7009,
      "हिन्द": 7010,
      "](<./Re": 7011,
      "▁రాజ్యం](<./": 7012,
      "వందే": 7013,
      "▁బా": 7014,
      "▁బహు": 7015,
      "▁బెంగ": 7016,
      "industani": 7017,
      "ాల్లో": 7018,
      "handigarh": 7019,
      "▁जनसंख्या": 7020,
      "-ltr": 7021,
      "india.gov.in/know": 7022,
      "▁[जम्मू": 7023,
      "శ్వా": 7024,
      "▁milk": 7025,
      "ారిటీ": 7026,
      "▁शिक्षा": 7027,
      "जाति": 7028,
      "ंपरा": 7029,
      "arendra": 7030,
      "ripura": 7031,
      "धीश": 7032,
      "AsherTalbot20": 7033,
      "గోళ": 7034,
      "▁शासित": 7035,
      "▁ప్రాంతాలు": 7036,
      "బడిన": 7037,
      "తున్న": 7038,
      "న్నిక": 7039,
      "_बंगाल>": 7040,
      "]](<./भारत#cite_note-FOOTNOTEStein1998": 7041,
      "]](<./भारत#cite_note-FOOTNOTESingh2009": 7042,
      "▁స్వాతంత్ర్య": 7043,
      "ote:": 7044,
      "▁use": 7045,
      "त्तराखण्ड": 7046,
      "truc": 7047,
      "](<./List_of_countries_and_d": 7048,
      "_from": 7049,
      "మెరి": 7050,
      "▁కాలంలో": 7051,
      "Dyson2018>),": 7052,
      "▁लेख:": 7053,
      "uisine": 7054,
      "▁China": 7055,
      "ortal:": 7056,
      "ambod": 7057,
      "ంపి": 7058,
      "तमिलनाडु": 7059,
      "బెంగాల్": 7060,
      "▁बंगाल](<./पश्चिम": 7061,
      "▁संविधान\")": 7062,
      "rishna": 7063,
      "▁especial": 7064,
      "ెలవు": 7065,
      "](<./భారతదేశంలో_": 7066,
      "▁व्याप": 7067,
      "rmy": 7068,
      "arliamentary": 7069,
      "Environment": 7070,
      "▁growth": 7071,
      "▁increased": 7072,
      "_of_Congress": 7073,
      "ependencies_by": 7074,
      "%E0%A5%87": 7075,
      "catalog": 7076,
      "క్రమ": 7077,
      "▁అధికారిక": 7078,
      "▁2018](<./India#CITEREFDyson2018>),": 7079,
      "ఆర్ధిక": 7080,
      "▁పట్టణ": 7081,
      "▁కాశ్మీరు": 7082,
      "▁క్రీడలు": 7083,
      "](<./हिन्दी>": 7084,
      "Panthera_tigris": 7085,
      "osphere": 7086,
      "ublications/": 7087,
      "▁estimate": 7088,
      "▁दीव": 7089,
      "culpture": 7090,
      "▁Minorities": 7091,
      "▁అయిన": 7092,
      "▁రెండు": 7093,
      "_Development_": 7094,
      "ట్రో": 7095,
      "ుల్తాన": 7096,
      "ంగ్లీషు": 7097,
      "రాష్ట్రాలు,_కేంద్రపాలిత_ప్రాంత": 7098,
      "▁వ్యాసం:": 7099,
      "_icon_edit": 7100,
      "▁अप्रैल": 7101,
      "ैदराबाद": 7102,
      "ंडीगढ़": 7103,
      "ార్లమెంట": 7104,
      "ంపెనీ": 7105,
      "▁ఏర్ప": 7106,
      "▁Quote:": 7107,
      "](<./कर्नाटक>": 7108,
      "▁[कर्नाटक](<./कर्नाटक>": 7109,
      "](<https://books.google.com/books?id=ZvaGuaJIJgoC&pg=PA": 7110,
      "Home_Affair": 7111,
      "OOjs_UI": 7112,
      "ఆంధ్ర": 7113,
      "లయాళ": 7114,
      "archive.org/details/": 7115,
      "](<./Mughal_": 7116,
      "-ltr-progressive": 7117,
      "](<./List_of_countries_and_dependencies_by": 7118,
      "▁बंगाल](<./पश्चिम_बंगाल>": 7119,
      "▁especially": 7120,
      "_icon_edit-ltr-progressive": 7121,
      "OOjs_UI_icon_edit-ltr-progressive": 7122,
      "122": 7123,
      "97": 7124,
      "Amritsar": 7125,
      "Bany": 7126,
      "Han": 7127,
      "King": 7128,
      "Langur": 7129,
      "Tier": 7130,
      "Wikivoyage": 7131,
      "_lo": 7132,
      "_36": 7133,
      "ahib": 7134,
      "aHard": 7135,
      "cur": 7136,
      "f_Rat": 7137,
      "ila": 7138,
      "ield": 7139,
      "nag": 7140,
      "o_m": 7141,
      "o_n": 7142,
      "tou": 7143,
      "tus": 7144,
      "ucif": 7145,
      "जार": 7146,
      "ज्य": 7147,
      "डु": 7148,
      "पदी": 7149,
      "पृष्ठ": 7150,
      "वै": 7151,
      "वरा": 7152,
      "शा": 7153,
      "स्य": 7154,
      "सित": 7155,
      "हात": 7156,
      "ुट": 7157,
      "ोस": 7158,
      "ोला": 7159,
      "ोडिया": 7160,
      "ौपदी": 7161,
      "्मा": 7162,
      "report": 7163,
      "ार्मिक": 7164,
      "anist": 7165,
      "▁समाज": 7166,
      "रामाय": 7167,
      "ice_": 7168,
      "asht": 7169,
      "▁India_": 7170,
      "la_D": 7171,
      "▁अस्त": 7172,
      "ikipedia": 7173,
      "agore": 7174,
      "▁Conservation": 7175,
      "ंगोल": 7176,
      "ित्र": 7177,
      "▁mon": 7178,
      "▁man": 7179,
      "url": 7180,
      "लाओ": 7181,
      "ांचे": 7182,
      "ir_S": 7183,
      "▁_C": 7184,
      "elumb": 7185,
      "akwas": 7186,
      "-26": 7187,
      "Unrip": 7188,
      "द्रौपदी": 7189,
      "eph": 7190,
      "n_Unrip": 7191,
      "-899-": 7192,
      "avo_m": 7193,
      "_in_Amritsar": 7194,
      "1857": 7195,
      "र्मू": 7196,
      "▁लाल": 7197,
      "▁भवन": 7198,
      "Harmand": 7199,
      "▁धार्मिक": 7200,
      "गर>": 7201,
      "जीव": 7202,
      "_pilgrim": 7203,
      "_Map": 7204,
      "दाबाद": 7205,
      "384": 7206,
      "_Ganges": 7207,
      "_Golden_Temple": 7208,
      "▁घट": 7209,
      "_Berlin": 7210,
      "_Nelumb": 7211,
      "▁[![](//upload.wikimedia.org/wikipedia/commons/thumb/4/": 7212,
      "धारण": 7213,
      "िन्ह": 7214,
      "▁२६": 7215,
      "obra": 7216,
      "▁१९७": 7217,
      "angetic": 7218,
      ".jpg>)[": 7219,
      "an_tree_on_the_b": 7220,
      "▁टा": 7221,
      "न्नड": 7222,
      "ikh_pilgrim": 7223,
      "6124": 7224,
      "loc.gov/": 7225,
      "_Of_Rat": 7226,
      "-Cobra": 7227,
      "hadakwas": 7228,
      "e_Mango": 7229,
      "1017-899-": 7230,
      "%E0%A5%8D": 7231,
      "uticus": 7232,
      "](<https://en.wikipedia": 7233,
      "_at_the_Golden_Temple": 7234,
      "acred_lo": 7235,
      "▁विषय": 7236,
      "मेरिकन": 7237,
      "latanist": 7238,
      "aranth": 7239,
      "वसायिक": 7240,
      "wicke": 7241,
      "_of_Khadakwas": 7242,
      "द्दाख": 7243,
[...]
